/**
  ******************************************************************************
  * @file    network_data_params.c
  * @author  AST Embedded Analytics Research Platform
  * @date    2025-05-30T20:48:52+0800
  * @brief   AI Tool Automatic Code Generator for Embedded NN computing
  ******************************************************************************
  * Copyright (c) 2025 STMicroelectronics.
  * All rights reserved.
  *
  * This software is licensed under terms that can be found in the LICENSE file
  * in the root directory of this software component.
  * If no LICENSE file comes with this software, it is provided AS-IS.
  ******************************************************************************
  */

#include "network_data_params.h"


/**  Activations Section  ****************************************************/
ai_handle g_network_activations_table[1 + 2] = {
  AI_HANDLE_PTR(AI_MAGIC_MARKER),
  AI_HANDLE_PTR(NULL),
  AI_HANDLE_PTR(AI_MAGIC_MARKER),
};




/**  Weights Section  ********************************************************/
AI_ALIGNED(32)
const ai_u64 s_network_weights_array_u64[7259] = {
  0xbebf07dcbf1e6b03U, 0xbf267bd63e891a5dU, 0x3d7effa1bd887e57U, 0x3e289081bc26e22aU,
  0x3bc5d2e83eb01664U, 0x3d113e35bd4b92f8U, 0xbc1086133e401713U, 0x3d397df43e412f4eU,
  0x3da843ce3e6bbdd6U, 0x3e2304abbb44aa3cU, 0x3e106d99be1378f7U, 0xbc9b7c8cbe6d43fcU,
  0xbde6f2a43e19c825U, 0x3e0ee6823c99f44bU, 0x3ea2019c3e5f6fb8U, 0xbe857088beb8347cU,
  0xbf04552c3e516c79U, 0xbe17ce1cbeb6f8beU, 0x3d9dd1ef3e90eb6cU, 0xbe7c57f03e777ff8U,
  0x3da5917c3de136ffU, 0xbe8c11fbbf22205eU, 0xbe3753b73e677b6bU, 0x3e9e1a753e8642eaU,
  0x3e627b9e3ddfd3c9U, 0xbc4775733e4d4441U, 0xbe5112c7bd7ebf56U, 0x3d8f53fdbd7e4332U,
  0xbe9a93d83d830cdbU, 0x3e0754ad3d699e03U, 0xbebdb062bf1ea5f2U, 0x3da0bf653dca6e9bU,
  0x3e50c2fe3e86b193U, 0xbd0f1b0a3e1cbeedU, 0x3e241cdf3cf6b079U, 0xbd189dd03d9c3f8eU,
  0xbf35c3743c8e6b2dU, 0x3dd7469dbb9ca947U, 0x3b2e3ad1be7c0e24U, 0x3e9cff3d3d168d45U,
  0xbeae26b93e958ad3U, 0xbea10ae7bed96c4cU, 0xbeb548483c9307d2U, 0x3e8344c7bef63155U,
  0xbe7807c33e01f74bU, 0xbeaf3b01bf0dbf2fU, 0xbefba631bce8257aU, 0x3e1170b4be01cffaU,
  0x3e241138bda5de04U, 0x3e470dbb3e6bacbcU, 0xbe8522e53e593b92U, 0x3e84cde7bdcdb3b9U,
  0xbed41f793d019167U, 0x3d95723dbcb79d0aU, 0x3bdad86e3e9c1d7bU, 0xbdbea393be0fb775U,
  0x3d427dc03e3b45acU, 0xbd54c6d1be8a1e0dU, 0xbec4acbe3e8eb520U, 0x3e507a36bc49a53dU,
  0x3dd436d13bdefebaU, 0x3caed77c3e436f9aU, 0xbdf3f8c33e6c2d06U, 0x3ed8bc793e907cf8U,
  0x3dfe9ae13e2d892aU, 0xbe8dacf9bd8111efU, 0xbebf266bbad2dad0U, 0xbe3cd860bed98e8dU,
  0xbe3e9714bf0bc3e2U, 0xbf11d1663d339c57U, 0x3e712cc2becb3b7aU, 0x3de3ecc53e371994U,
  0xbe316a433cf1d7a0U, 0x3c5bdc82bed8c1c7U, 0x3c497b6ebd8268b4U, 0x3e6085363c928b31U,
  0xbadec4843e37a238U, 0xbe6b14563e322541U, 0xbe5c46c23e2f7819U, 0xbd8875ccbdb9a748U,
  0xbe1ef87bbd401b93U, 0x3e830e0c3e801d2fU, 0x3e164bff3df4fb74U, 0xbef19e87bea6147bU,
  0xbf3a4d6c3d2c5f65U, 0xbeab007cbeeb83e5U, 0xbe0bb4603b923108U, 0xbe19b5a6bf02bad2U,
  0xbe5f8a94be061e89U, 0x3dbec54e3e10bb44U, 0x3e956af7bdc4779eU, 0x3d300587bdd32f8dU,
  0xbda776793e202c82U, 0x3dac15533d85d521U, 0x3dffb9d93d1bd9c4U, 0xbe81bdddbbd3a8d4U,
  0xbd8ca6d23e27e26dU, 0x3d13b105bd5cb933U, 0x3da17939bc02f08bU, 0x3e245051be7d186cU,
  0xbdc5a8cebe40a662U, 0xbea4a9173e05d3c6U, 0x3e5197513e4511fdU, 0x3d81ece2be2689f2U,
  0xbe5c53a43d129772U, 0xbd49bc3e3e6ed24bU, 0x3dbf1679bea3aca0U, 0xbd9f8ff63d42fa18U,
  0x3d120104bf509b04U, 0xbf0648a93e014ec2U, 0x3d7714153dd3292eU, 0x3e9f0107b98ab2ceU,
  0xbd3f72a83e8606eaU, 0xbe98253ebeb7fcc8U, 0xbb5e010b3e86b866U, 0xba2385c8beb29e3bU,
  0xbe9005e2bed1a82cU, 0xbe6f87b23e8dda81U, 0xbd8a4b56bf47f9deU, 0xbea61ae63e80c92fU,
  0x3da7bbffbd2ff64fU, 0xbe6f6a963ea9b1f2U, 0x3e8409553e0f9affU, 0xbdf55afcbed9a4f9U,
  0xbf1bdd343db9c81fU, 0xbe35ca4fbeb23086U, 0xbdfa8130be84fd1bU, 0x3d8165553dd1c608U,
  0x3e704d883c873b43U, 0x3e7021a73ed8c7c8U, 0x3cb20a3c3dee2647U, 0x3d41711d3e9a8102U,
  0xbe73a15bbf6a7ae3U, 0xbea61a533e243c9fU, 0x3e08044e3e2976eeU, 0x3e7307f33d884e1dU,
  0x3e3be5ddbe0b5351U, 0xbee5488cbeb1a7fdU, 0xbeb1de423cfa543eU, 0xbd09e188bf1b2358U,
  0xbe6a1a42be86cba0U, 0xbea0088a3e8c4af6U, 0xbde02fe0bd72a26fU, 0xbdb49bf93ea9662fU,
  0xbeba05403d94a946U, 0x3d80b5febed80feaU, 0xbc437e323d815717U, 0xbf28ed373e39218bU,
  0x3df6fc903d46012dU, 0xbaaf36803d684dd1U, 0x3d8994f8bd10ae93U, 0x3d9f082e3ce4412cU,
  0x3c9518e03d5e526aU, 0x3d6c50293c1b3bb8U, 0x3d5ea8f6bd5b8478U, 0x3da4be273d38f597U,
  0x3ded73cf3d6f7c81U, 0x3e208f253d3f95b1U, 0x3e1eb532bce2fa60U, 0xba4a2bd03e0dff34U,
  0x3d1963b4be781ba2U, 0xbdbd4962bd36060aU, 0x3cde0491be6104b8U, 0xbd2eda78be11ec3dU,
  0x3be5cc33bd9f0114U, 0xbe0316ddbe9bb391U, 0xbe57e812bd770811U, 0x3ce84945bdd9781eU,
  0xbd8b9c573d76b704U, 0xbde1ddaebdaed652U, 0x3de556e2bd868c7eU, 0x3dea2f3ebcaba139U,
  0xbdbf541ebf06579bU, 0x3d93bc53be6c967cU, 0xbe4a179f3c6a8596U, 0x3b299a30bddf7889U,
  0xbdb04211be8d07dbU, 0xbda3901abe338089U, 0xbe26d419bd5608cdU, 0xbda827fdbdac47fbU,
  0x3e2767913d876d05U, 0x3d889892be319445U, 0xbe5e22463ddc51c7U, 0x3e3076a7be33d124U,
  0x3dff04bc3e0bc396U, 0xbe0edbeabdbad23dU, 0x3d4b7e0dbd806810U, 0xbd9094ee3d924ee9U,
  0x3e0f81f1be3d86deU, 0xbd24898a3dbef52eU, 0xbe238c24bdbdd146U, 0x3df07c8b3d05bfbaU,
  0x3d42752cbe535443U, 0xbcef4704bd933818U, 0xbe00fcfebe231388U, 0x3c9a6938bdb70f96U,
  0x3e959c07bdf79f5cU, 0xbcfdf967bdc2e387U, 0xbc27c0f3bdf5489bU, 0x3d034a1cbe4d0385U,
  0x3db32050be10fc00U, 0x3db9e18abd3f7335U, 0xbdde79aa3c7481ccU, 0xbb5373e43d650fa9U,
  0x3e378532bdc44456U, 0x3dda6994bdf6ccedU, 0xbdeca081bde4bed2U, 0xbdd7e30f3d7a7e91U,
  0x3d8746bebe38e96eU, 0xbdce2a573d58d71fU, 0x3df8207f3d7c4a82U, 0x3aa1b417bb9d227aU,
  0x3dffbe7dbda01bd6U, 0xbcd61ef5bde7ff44U, 0xbe6ca2393dd88ad8U, 0x3a3d3e5c3cc8fb2cU,
  0xbb7f6f9cbd4cc79cU, 0xbe34c21cbe38e2e0U, 0x3c47bffbbc9bb640U, 0x3e2299b2bdde31eeU,
  0xbe2a014dbeaaa04aU, 0x3d7bf9a3bd865689U, 0xbef8c84a3dff0009U, 0x3d0bd2aebe0a9f4aU,
  0xbd018a2dbe555503U, 0xbd41ccd2bd85da38U, 0x3c849382be24a81cU, 0xbe96cb6cbebf4a6eU,
  0x3e1b011f3da321d9U, 0x3d9e1313be1163d3U, 0x3c2c3dc23e729c34U, 0x3d91f149bdbf6b7bU,
  0x3d26ce3abd9ad175U, 0xbcb03a45bd00e4b3U, 0x3d7fe954bd1b4edfU, 0xbd86db733cc856d5U,
  0xbe56f34abdfc4d60U, 0xbd9015693c959c17U, 0xbdb0082ebd499abeU, 0x3d0bb6bfbdbfd106U,
  0xbe12b9cfbe812c41U, 0xbe8e7d9dbd9256b5U, 0xbca0dffebdeb0935U, 0xbe2b8c57be33a5f1U,
  0x3e9dfde1bdc1781aU, 0x3c949840bd0d4c67U, 0x3d198bd03d6efb1eU, 0x3da5dd053da26fe3U,
  0x3e3672dabd78f41cU, 0xbce7e898bd715976U, 0xbdb166293c340867U, 0x3e0c0c5ebcedd3ccU,
  0x3e814d3abe7841a0U, 0xbd05f43fbb3d6338U, 0xbdc4b4e03dec25c2U, 0x3e8d45af3e1e748bU,
  0x3decfa05be9aef42U, 0xbc7ae86d3cedbd37U, 0xbe6cf949bcd098b5U, 0x3d39c2f9bdfcfe8bU,
  0x3d84a5ef3e2742f3U, 0x3e40394bbde96ec6U, 0xbe2331813e957b8aU, 0x3dfc686bbe055204U,
  0x3cc695323d834d01U, 0xbdc44802bc989477U, 0x3e18212b3deb10e1U, 0x3cbc756d3d83d858U,
  0xbe7a2391be994624U, 0xbd83df5a3e09b4d7U, 0xbdb979c7bd5206bbU, 0x3d8833fcbe3e312eU,
  0xbdd45083be7f062fU, 0x3d4e47f83dda548dU, 0xbce539fe3d5f1e74U, 0xbd93d07abe21fb69U,
  0x3da9f5bcbc74078cU, 0x3d6f6e41be70ecddU, 0xbe0331bd3d14424dU, 0x3e5a32e1bdf8705eU,
  0x3d9077073db62504U, 0xbdfb5ad8be67cc7cU, 0x3d0efc863dd88b35U, 0xbb9d08613dd10e8cU,
  0xbed2a458be40f545U, 0xbda4f0783daca777U, 0xbe5a965f3e2f6742U, 0x3d4132bcbe5cc5a6U,
  0xbd7e6942be965b4eU, 0xbe3a2b0ebe25cc8cU, 0xbdcf1be7beb53e4eU, 0xbcb26a9abef40357U,
  0x3e2e6a543e265cc0U, 0xbc91e62ebe0e8866U, 0x3d4159c33cdd714bU, 0x3e4a15bebcc1d0aeU,
  0x3e0b7af53e04720fU, 0xbd8dfc153d287304U, 0xbc6ec920bccba657U, 0x3c46a2c43e22793dU,
  0xbe0cbaa7bde8c2f1U, 0xbeaea34e3e3ba01aU, 0xbeb8247d3c96e962U, 0x3e6e23063d93ec00U,
  0xbeefe34b3de48cebU, 0xbe4e0821be9e7573U, 0xbc5544cb3df3561bU, 0xbec1f88cbdb419f7U,
  0x3ea89a75bdbe9936U, 0x3e9df88a3c484216U, 0xbdebe6643dff23ceU, 0x3ec0e85abdaf0ee9U,
  0xbce6d1943d15267cU, 0x3cf281c0be5d58a4U, 0xbdd0b7bdbe0e3bc5U, 0xbd230c713c0b1c40U,
  0x3e01c5783c132e19U, 0xbdcb677c3dce48ddU, 0xbb8011563a0240feU, 0x3e20a6fabe709425U,
  0xbe7b6cb83e49af29U, 0xbe5f4ea2bd1dc592U, 0xbdfc5b80bdd635a8U, 0xbe856bb2bd938489U,
  0x3e7762ae3e15c6b3U, 0x3da93a073dba109cU, 0x3cd573e93cb6210cU, 0x3e18b2c3bdb57a0cU,
  0xbda7cef53de0cf7eU, 0x3d6726c2bd40f44aU, 0x3c7f6995bdfbfa73U, 0x3dc825373d26c00aU,
  0x3e22d7653d5c0b7eU, 0xbc460ce63c89de85U, 0xbe0204b5be564c03U, 0x3dac99333d68d98cU,
  0xbe1527843ca6973eU, 0xbd8e15fcbe7e1ce1U, 0xbd88e56cbe091cd8U, 0xbeb1a980be2e247aU,
  0x3e7512a13c2bbe36U, 0x3e2c8abf3e2c7c58U, 0xbd205598bd8c8f0bU, 0x3d84b65dbe509271U,
  0xbd7e822ebd9fc2f4U, 0x3c28017cbe4546f8U, 0xbd4f613abe810d40U, 0xbdcf1fc83dbb7bd2U,
  0x3dfe48dc3e00bbceU, 0xbcc2088bbb9f6094U, 0x3d3cf8b6bcc814f8U, 0xbe89db13bd990c91U,
  0xbe5d7a98be6fe13cU, 0x3e8aa037bd82c8edU, 0xbd503db43e942b49U, 0xbe5407083d5b37feU,
  0x3e6bfeed3d12f293U, 0x3e2e432abe57d223U, 0x3d96928d3e0ecb54U, 0x3e9f8e10bdd8314dU,
  0x3c0bdfffbd0bfd2aU, 0xbe14b3983d167bc1U, 0xbc38815bbe1d92b1U, 0xbd1f7fba3db03258U,
  0xbe0054d2be6b58b8U, 0x3e092cf5be61f2bdU, 0x3dd4ed8e3dd64b3cU, 0x3e9221cf3c6df4ddU,
  0xbe84cf55be457edaU, 0xbd97a5d5bdd04a32U, 0xbcef72533ce96829U, 0xbe1c6e5fbe011fadU,
  0xbd86bc1ebe0e0746U, 0x3d32e6f9be28817eU, 0xbdc7a41b3dbbab05U, 0xbda4f2fb3ccb41d8U,
  0xbdd8332ebd833224U, 0xbe6ce4e33d83d238U, 0xbe1a6478be84e53aU, 0xbd1b31473d0f9de8U,
  0x3e05b547bebb7289U, 0xbe672813bda796eaU, 0xbe962acbbe1043a9U, 0xbeb391903d6c0d1fU,
  0xbec87631be61a7caU, 0x3d1ad2ccbdda003cU, 0x3e109be1bd303846U, 0xbd539adc3d185c31U,
  0xbcf7999cbd7417e0U, 0xbe50bae3bdf63206U, 0xbd0bb93abbbdab2dU, 0xbe15bf533c2201bfU,
  0x3d1ebb783bb1e0a0U, 0xbd111cda3db2a8eaU, 0xbc3302b3be2e66b8U, 0xbd2b8c77be2f109eU,
  0x3e8179cabdc949afU, 0xbde6165cbe2e1b15U, 0xbc631e77bee12d04U, 0x3e0027613d9d616cU,
  0x3cdf45d3be826d32U, 0x3e83f210bda9a9e6U, 0xbe3924de3e63bc7dU, 0xbe1dcf0a3d8953d8U,
  0x3e6dbbbc3e47fd48U, 0x3d0c3c51be640c38U, 0x3b5b4dc53dd48b47U, 0x3e453644bc4a889bU,
  0xbd8e66b43e102f15U, 0xbe639d0fbd8677b1U, 0xbc9d0c8abd754893U, 0x3dedb83b3de05468U,
  0xbe0f5ec93c0a95efU, 0x3e7afe76bd167591U, 0xbd8edab03d8106c2U, 0x3e6d0599bc400796U,
  0xbe943283bea30311U, 0x3db1a3b8be3eb98aU, 0xbe5c295d3d8da28fU, 0xbeb5706cbe13f7f2U,
  0x3d873a0ebd25e38dU, 0x3e2368aebe835872U, 0xbbf358eabb824e5fU, 0x3e993e34bdf746f7U,
  0x3e0ac4bb3d1019f9U, 0xbd97ae26bdb32e15U, 0x3dafa1d8be2a6467U, 0x3d9fe8cf3b29270aU,
  0xbea21d3ebe760a16U, 0x3d973ef7be946943U, 0xbcc3eb3dbc6717b4U, 0x3e628bde3d231b73U,
  0x3e185e563d79b39dU, 0xbdc4a268bd94839aU, 0xbea1d312bd0d54aaU, 0x3c1e37d93d104db0U,
  0xbdef1fb8bcda0f3cU, 0xbe185fa7bd81bb13U, 0xbe635470bdd5d009U, 0x3db8b7d2bd1fdd88U,
  0x3da0392ebcc77de5U, 0xbe19f9673e0f3573U, 0x3cd64c3dbe2fe2faU, 0xbcceca2ebcb884eaU,
  0xbe0101343c76c7f6U, 0xbe45f2e73d57dcbcU, 0xbcca2a87bd601d8bU, 0x3d446d1e3da3f458U,
  0x3d873bd2bcd1753aU, 0x3e8a2993bd5b2edbU, 0xbc976a103e905f8fU, 0xbdfb958b3cfd0f91U,
  0xbd37ffaebef0c9afU, 0xbb70fbf9bdbe08deU, 0x3beb72263dfa72d6U, 0xbe0c5dce3d6bd1dfU,
  0xbe0ba838beedba1fU, 0x3e3ca51b3c4e7616U, 0xbe323608be21ae8dU, 0xbe76c2a1beaf8eb0U,
  0xbdc0b25a3ccfb732U, 0x3de2b9c5be88247dU, 0xbcf4ae4bbde0109dU, 0xbe1f423cbe2c3c15U,
  0xbe2e99cfbe368fb0U, 0x3e3a8ac1bd4c7e2fU, 0x3dc22ec53e18c6ceU, 0xbe348b223e62b501U,
  0xbec3b9a3be9df98dU, 0x3db766f2be90c89dU, 0xbd454e55bc92d089U, 0xbe5386303d417030U,
  0x3dabdf6dbe95729dU, 0xbe1f10a0be13d78eU, 0xbe546b813e0addf5U, 0xbe81b653be01de1aU,
  0xbe8aa1f9bda6f63bU, 0x3e3725d2bc52ee44U, 0x3eacaf98be272534U, 0x3dce1653be086d63U,
  0xbd93cbfabe90b79dU, 0x3e1fc513bdf98865U, 0x3bbb9bfb3e238295U, 0xbc2ac43abddc5010U,
  0xbe086d6fbd22b2c8U, 0xbd5dfd33be59eabfU, 0xbd8e61f63df1acbeU, 0xbdb6ffa03b851d14U,
  0xbdae5aa83cad3935U, 0xbd926e8d3c55c03aU, 0xbd848bc3bddb6507U, 0xbe39dfe0beedced7U,
  0x3d039f39be091dc9U, 0xbe1cd7fdbdeb70e7U, 0xbe4faa033daf050dU, 0x3e01f200be870583U,
  0xbe477c3a3e236cfbU, 0x3e2530fabe438d6eU, 0xbe72d7d93e3901c2U, 0xbec34fdb3e881e50U,
  0x3e971e86bec9ab03U, 0x3dbbbb823e8d0f77U, 0xbe1c4ab53e6459d8U, 0x3e7357ab3ce4c91aU,
  0xbe7681e3be75be68U, 0x3ebf6a8ebe430c74U, 0xbe9ce614beafdfbdU, 0xbec9ed1cbe1cd413U,
  0x3e890d72bd87fe10U, 0x3e9fe139bdddababU, 0xbd3b4d85bf000382U, 0xbe37a1afbe071382U,
  0xbdd1cff13d87e3dbU, 0x3e57e1dabdf4d8b7U, 0x3d8936f23db0dd80U, 0xbec0d9db3e970549U,
  0x3d12ca5cbef415b2U, 0x3e671ab03d4ff6afU, 0x3e001b2f3e124b05U, 0x3d8a8475be1596dbU,
  0xbe490aaebec1911cU, 0x3ddc90c1becf4a6fU, 0xbedc94a7bda459b1U, 0xbed70109be71938fU,
  0xbe10a316bd6f5009U, 0x3e3a6a7cbef60716U, 0x3e642087be88841eU, 0x3ba4717bbec7ca51U,
  0xbe2980b5bda830bcU, 0x3e37eb353bbbd5cfU, 0x3cb7135f3e06a8b9U, 0xbe5046963e631bdcU,
  0xbe070d7abde8fa2eU, 0x3d8cf0433bc3f5c8U, 0x3c5432ad3dce4afbU, 0xbe629249bc119295U,
  0xbe5d25ddbd5be4a0U, 0xbdd8cc5ebe855d2eU, 0xbe3d00253c1e85faU, 0xbe64f2aabecdaf20U,
  0xbea169a9bd4a2093U, 0x3e389734bd1a2c8fU, 0x3d887d8abdb231b5U, 0xbd3743b4beca2afaU,
  0xbeba34b73e7c064fU, 0x3e9258d1bdb19658U, 0xbe85f21d3db72ce7U, 0xbe946fe83db53e3cU,
  0x3e5b8916be81fb86U, 0xbdc0425e3dede65fU, 0xbe9b0f31be138809U, 0x3eb01a23bd6fbfeeU,
  0xbed62a72bc8a0af2U, 0x3e7cbcfabe29a528U, 0xbed2371bbe9f277eU, 0xbe9eeeeabd05c07aU,
  0x3df86cb5be2aa36cU, 0x3ebfe420bda26852U, 0xbd247db7bee7b51dU, 0xbeae32f6bcb7253eU,
  0xbe413afb3dfa9262U, 0x3ece9001be4f74a9U, 0xbd7edd633cd952b0U, 0xbdeb4d743e81d604U,
  0xbd9976d0be4fed6bU, 0x3d4402b83e01a34aU, 0x3d4005c9be57f830U, 0x3dc9e0333d6037b4U,
  0xbeed9fedbe5f1589U, 0x3de9d1c4be9113a2U, 0xbeebc89dbe301955U, 0xbefc2185be4099dcU,
  0x3d9c76cabbf811e0U, 0x3eae8dd2bed1072aU, 0x3e53ae85bead0d0bU, 0xbe579a34be31c390U,
  0xbe36cad23e275bafU, 0x3ea8b458bd1bd578U, 0x3ddde9d93e275de3U, 0xbe9324e63e24905bU,
  0xbe7788523c106f7cU, 0x3e445afdbce0bbb9U, 0x3d6918113d9d6a6aU, 0xbcf80077be0a29daU,
  0xbe74cf09be981808U, 0x3ca1ab19bd6a752cU, 0xbe020f94bd6e113eU, 0xbeafb58cbe961675U,
  0xbd8f0984bbf3988dU, 0x3e8ea8e6bec5fba8U, 0x3e801d05bbd0a77fU, 0xbe750ef3bedd17eeU,
  0x3c000c4dbc0a9c1dU, 0xbca4a52c3e073c86U, 0x3d4391e33ba97979U, 0x3d8eaeb73e787fa6U,
  0x3c66068b3ce1560dU, 0x3e07ed4d3d9620b9U, 0x3c73bab4bd02dc1eU, 0xbdfee1c2bc8ca1fbU,
  0x3e02324d3e50d65eU, 0x3cb9b41fbe8b8f01U, 0x3d31e6ea3dd026e8U, 0x3d49c2b73e1d0c0dU,
  0x3e523cfcbd5b4f98U, 0x3e6eddbc3e3b9d0eU, 0x3c7e697cbd28900cU, 0x3e56eec7be09b325U,
  0x3d94ddb03c0e8390U, 0xbe981d84bc6cc822U, 0xbdeda338bdd73c1bU, 0xbd2d1b0abdb7a481U,
  0x3c8ef60e3d1f87eaU, 0xbdfdb8d73e34ba3fU, 0xbc25d5ef3d07c39cU, 0x3d64f76cbce2401fU,
  0xbcbe88a73b6e56a1U, 0xbd770b9dbd015071U, 0x3e06573fbce2083aU, 0xbbbfda9abda06434U,
  0x3e74e57a3b2c7837U, 0xbd917a083dad31b1U, 0xbd3d5e6a3e0194cbU, 0xbd50bb1b3bfeb1d2U,
  0x3ced3c45be510be1U, 0xbe3c673dbd8c0370U, 0x3d0a0638bebcf124U, 0x3d05df6c3c1c23b8U,
  0xbe1a96223e256cc3U, 0xbe0a1d9f3e63096eU, 0x3c9d882dbbd953d8U, 0xbdca1fafbe96c4e0U,
  0xbe6969b93e126353U, 0x3de53bf9bed9935fU, 0x3d415ab4bcd21db9U, 0xbd254740bc9356f3U,
  0x3d4c7480be42d1a5U, 0xbe027cb83d445bf0U, 0xbe6410fabd1513c2U, 0xbe341e9fbe6bb777U,
  0xbd7857143cae6264U, 0xbc6cc867bdf8d68cU, 0x3d8a55b9bd2ae29bU, 0xbe0ee26a3e91a410U,
  0xbdd03c2bbec04808U, 0x3d014b87bdc90b28U, 0xbd9ce8903b045853U, 0xbec44c303de77e61U,
  0xbd14ef30bdb16f1eU, 0x3e8445d5be460679U, 0x3d0cbfbe3dfe116fU, 0xbacef8b73d5e0cb8U,
  0x3d871517bc2311f2U, 0x3e95e31a3e57ef3aU, 0x3d37c0edbdc6906bU, 0x3ce83db5bc7fb221U,
  0x3d902f6bbdadbf0dU, 0x3e4e60a1bb7e9110U, 0xbe0e7e573dfff39eU, 0x3c2179cd3e1a2cccU,
  0xbd8b70663d9a6ee4U, 0xbd8e65ebbe48ef4aU, 0xbea579d73d8ee164U, 0xbd9a30f6bcc1dd4cU,
  0x3d563f73bdae9214U, 0x3db898dfbd8c75d7U, 0x3e1a2441bd7e42caU, 0xbcf0b21abd6a5dcdU,
  0xbd7843f5be5e112fU, 0x3e3c0771bdc6fb16U, 0xbdd7b1923dafdd79U, 0xbd0e14963df1eadbU,
  0xbc043105bea02d3dU, 0x3e528737bda89c3aU, 0x3e64e2a4bdae2c2fU, 0xbbc7ea223ca029bfU,
  0x3cae7c25be1dbc8bU, 0xbdbc3641be5cbdf4U, 0x3dfb02b0bddbf65fU, 0xbde3372a3c9d0e9fU,
  0xbe2395b1bdd9a305U, 0xbcff6484be5d30e9U, 0xbd1bb87abd938a43U, 0xbe8746303b3e8f6aU,
  0x3e21998abe072facU, 0x3de18ce7bf1a4203U, 0xbd50f2023d5287a9U, 0xbee4b70ebe271ad7U,
  0xbd858aee3e0c76a3U, 0xbdafb3acba95b9a6U, 0x3d4951f5bd915293U, 0x3c861bbe3d08a28aU,
  0x3df092813d57e5dfU, 0x3e1d67663e702a00U, 0x3d978612bc934505U, 0x3daf187f3c5fbb5bU,
  0xbe0449a2bd2363efU, 0x3dec2062bd8b23cdU, 0xbc863bc0bd075c8cU, 0xbb9ea7413e2f13abU,
  0xbe48d0a13d9b7cbfU, 0xbdd21f103d972adaU, 0x3dfee6273d4a7c8cU, 0x3db39d87be655f02U,
  0xbdb410bcbab881e2U, 0x3cddefe8bdf95e31U, 0xbe30ebd2bc94bfbeU, 0xbe31e086be61b1f1U,
  0x3e0cb7513e17138fU, 0x3cfd55e2be0576a0U, 0xbeae0fe43c678fe1U, 0x3df37e943c72c441U,
  0x3ceaf46d3d500836U, 0x3da12a37bc2780d3U, 0xbd7959ebbdfd68dcU, 0x3e2f988f3dcb9fc3U,
  0xbe69abac3cd110c8U, 0xbe8a6fd0bc082385U, 0xbe5a37d6bc98245aU, 0xbc34383bbd2bb39eU,
  0xbdf2a2943e52a879U, 0xbe40eb5bbe01fb29U, 0xbcad4e7cbe5f646eU, 0xbca78a5dbe37fa67U,
  0xbcbc9aef3dee323aU, 0xbe857bf03cc5fd22U, 0xbbf45313be64f0fdU, 0xba87fd513d88277fU,
  0xbe46f31c3d87662cU, 0xbd896f0dbde4a91aU, 0xbd0cee4bbe0717c1U, 0xbd3a2335bd87b630U,
  0xbd39ebc83c4488d9U, 0xbce11d58bc543c37U, 0xbd169568be4be526U, 0xbec72773bd1fe6b1U,
  0x3d2e0a10beed4218U, 0xbe35ae103e27a332U, 0x3c91c61cbe22fedeU, 0x3e038a76bd378f3cU,
  0x3da2252cbe7393daU, 0x3d8b40e6bec90240U, 0xbd84b86c3ce7bed6U, 0xbdd0aa9dbdacaebcU,
  0x3d818eb0be21c707U, 0xbe30361fbd69bde6U, 0x3d0ac4843d209b41U, 0x3d28c0e0be6320aeU,
  0x3d9f5c7fbe258fc1U, 0xbe1476bc3d8de9b5U, 0xbcca7933bce208b4U, 0xbe0c097ebd8536f7U,
  0x3d4a02b3be8bef24U, 0xbe31f6723bf6d781U, 0xbd925a08bd0e0b97U, 0x3cc408cdbdb1cbb5U,
  0x3dd5693e3d4e84c1U, 0x3e468968be61aae4U, 0xbde730023debf7a2U, 0xbd7b34ffbcd1717cU,
  0xbddca29b3ded311bU, 0xbdb2293dbe8f39bdU, 0x3d87f30c3cd2c382U, 0x3d931fce39c2f80dU,
  0x3e7e107cbed02253U, 0x3c80c7b83e0648f0U, 0xbe2e3fb9be40391cU, 0x3de1abe8be33634dU,
  0xbdf7450abda681e1U, 0xbeb1f731be2f7c24U, 0xbe21d028be8076abU, 0xbd88fc9ebe14f63aU,
  0x3e44ab283e6876ffU, 0xbeb0019e3d70ae77U, 0xbdad104bbdd2612aU, 0x3e79df87be015a70U,
  0x3d8bc2fc3d0b3ef1U, 0xbd00053ebec47369U, 0xbc913b3cbd48bbc3U, 0x3dbd21133d28cf3eU,
  0xbb2a7bc8be0f9359U, 0x3cb29a1a3d16a728U, 0xbe1043523d2f0ffaU, 0xb9d1579ebd459392U,
  0x3d11f38fbea6b156U, 0xbda22d1c3ddeececU, 0x3dadd7cd3df2e676U, 0xbdb833913dec6ba7U,
  0xbe1e2b2bbd4a95efU, 0xbd14ad60be59bcc4U, 0xbe2c4747bb9d9255U, 0xbdcfd9fd3d9a800bU,
  0x3d0ac2eabe050555U, 0xbdde10093d3b8347U, 0x3d550a56bdc3af55U, 0x3c856e41be7c48b2U,
  0x3c167283be0c0b41U, 0x3cf080fabe7a52eeU, 0xbd14a8cabe0d6868U, 0xbd8c2927bdeca19eU,
  0x3dc2fa85be2a2cc5U, 0xbe11954bbdc3a34bU, 0x3d820d043e041fe8U, 0x3d1a71713e175c06U,
  0xbcf051f0be529063U, 0x3e569aeebe79dd9cU, 0xbca0adda3e31d41dU, 0xbdcbd51b3cc6d62eU,
  0xbd5026753d6ba038U, 0xbe46ad20bec82549U, 0x3cb801263d92554eU, 0xbd482aa9bd912d76U,
  0xbdc348d1be1ead8aU, 0xbcb415563e02c0aaU, 0x3b4028fd3bee05b2U, 0xbc9c042cbeb6b223U,
  0xbd6053c6be759fcbU, 0xbe3741663d2915c3U, 0xbcd5af233b8ea917U, 0xbe09259bbe4f5c04U,
  0xbd2495933d0ee274U, 0x3d23f96fbcd6bbc9U, 0xbe120299bd0c87e0U, 0xbaf7a9fbbdf96392U,
  0xbd24beaf3e1b3c14U, 0xbe05de32be58c223U, 0x3e4325b03db89901U, 0x3e25e950bd662859U,
  0x3c9ac844bd517448U, 0xbd68bbbdbd8e3b4aU, 0xbe2f71d53e42263bU, 0xbe34f1aebe0256cdU,
  0x3d5f208b3c66b760U, 0xbdb73a173c2261c3U, 0x3db3a91d3e03112bU, 0xba9ae0ba3e193ba6U,
  0xbda4eb2cbe22b2d4U, 0xbe063b683dd09b1cU, 0x3c2b00523d372839U, 0xbe0921e13d9031d0U,
  0xbc9ce93fbe97ed52U, 0x3af0ae423ccc3b38U, 0xbd86719ebdad26dbU, 0x3c9910b1bef9b386U,
  0xbb1e31ec3d2a1cfbU, 0x3d8c0218be95130cU, 0x3d12d1033d35e06aU, 0xbde467c03d9a383dU,
  0xbd444be73d502fc9U, 0x3da2f584bcdb3cacU, 0x3dc1dab03dfc239bU, 0xbd01f1ab3e768423U,
  0xbe011aed3d875e80U, 0x3d1c0c7cbe0d38efU, 0x3d0a9aff3d484082U, 0xbe4833e4be00cd1dU,
  0xbda4e617bc407e8cU, 0x3cdb5ee2be460017U, 0xbd80ad6f3df14340U, 0xbd24bbaf3e4d970cU,
  0xbb8a2d083df90315U, 0x3e7ff343bddeeaf6U, 0x3e0b27aebd60c094U, 0x3da1ea52bd9752dfU,
  0x3e37f99dbe10222bU, 0x3d925bcfbd3928f4U, 0x3d6f93bf3cedece5U, 0x3d911c7d3df40fb9U,
  0xbe017c553e26cbb5U, 0xbe13a499bddacab9U, 0x3d99a268bd0536c9U, 0xbd81575cbd683a71U,
  0xbc462813ba7ff0b2U, 0x3cd47b81be353a8bU, 0xbacdf8f53e142a8aU, 0x3ddd911b3da9363dU,
  0x3ac23f813cc35e4fU, 0xbc27bb9bbcaa3aa3U, 0xbd573cf63d96f512U, 0xbdd32148bd1deb76U,
  0x3daf1df43e8a9829U, 0xbe74ee4e3dc6ce38U, 0x3d75a71abc9b9988U, 0x3dde4be53e1550a0U,
  0xbc8bb88abd57c708U, 0xbe677b9d3e6764bbU, 0x3da38305bd92a83dU, 0xbdea42743c25f396U,
  0xbd4337fe3ddada32U, 0x3d96c4cebdd01b2eU, 0x3defbfd73d34fe35U, 0x3debbb29bc21b9cbU,
  0xbca32fd83e3679c2U, 0xbe198212be1740d6U, 0xbc5514a5bd438d90U, 0xbe7defacbcb21ddbU,
  0xbe45fd06bd3de7bfU, 0xbe70e7e5be47c1bcU, 0x3e2948f1be4cf88dU, 0x3c01b49cbdaaa95fU,
  0xbd90873abd6eec4cU, 0xbe82dac03d46a80eU, 0x3df0cacebde425f8U, 0xbdd3556fbd4b9addU,
  0xbcd66db93b430ce6U, 0x3dc25cb93ddc53a8U, 0xbde64bc2be003becU, 0x3d1bbea23dd95957U,
  0xbe1a4f9e3d5b57afU, 0xbd7f5743be1ebc94U, 0x3de5dbf9be262574U, 0xbe1b171a3ca78678U,
  0xbda0a555be1b0dd3U, 0xbde5a096be354a59U, 0x3e2243563ddd5f87U, 0xbde4aeaf3d1bd983U,
  0x3cadf917bd1cab9cU, 0xbe4201a8be29d7b9U, 0x3c1ab50bbe721d1aU, 0xbdd3cee83d595274U,
  0x3da7cb02bd4cd2f5U, 0xbe144ca63ce08f86U, 0x3df38051be31b60fU, 0xbc8731d13cefd840U,
  0xbccfede5bddafcf8U, 0xbdfffd5cbd997e99U, 0xbcc98788be652e4cU, 0xbdfa6ad83e1d144fU,
  0xbce3d47ebbdcd885U, 0xbc65062dbd7b4761U, 0xbc26db74be09b3eeU, 0x3df8e3563c7260b4U,
  0xbcf28570bd8652c5U, 0xbd95675fbc3893b5U, 0x3db7c720bd8c3645U, 0xbe8942623dbfcf01U,
  0xbd4b7001bdf213d8U, 0xbde3cea23d941c7aU, 0xbc9da6b4bdc4c745U, 0x3ca6aae8bdb33c32U,
  0xbddd0e0bbbb03861U, 0xbdb20354be2dadecU, 0xbc5a33f93d3cc197U, 0xbccf5f55bd2f5bf6U,
  0xbd1c7d6bbe1e5fcdU, 0xbe7708fcbc5cae72U, 0x3de19804be3d766bU, 0xbe64005d3dc2c259U,
  0xbe1a9e1cbe435db5U, 0xbea85ff7be96c3aeU, 0xbcf01378be9adbb8U, 0xbe7890493d51bba4U,
  0xbd9d48323d67685fU, 0xbe1617d4bc596accU, 0xbd5283b83ccceb5fU, 0x3db5935f3dd212d7U,
  0x3d8a52c2bcb89c1dU, 0x3dab464a3a3f469fU, 0x3d033165bdc33d35U, 0xbca7b1f7bd199842U,
  0xbdb97fb8be2cb046U, 0xbc9cfc64bdb147eeU, 0xbc81a7fa3c807a5cU, 0xbe04fdc83cbf0f51U,
  0xbd9cd5dbbd2b182cU, 0xbe76bf5bbdebc8beU, 0xbd8b90b4be860835U, 0xbb9761383c8d7725U,
  0x3c206fd43d1d4a06U, 0xbdac78ebbd319e8cU, 0x3deeb4a6be9aa587U, 0x3e2b8748be1e33e8U,
  0x3dbe192abead327dU, 0x3da94186bd20eeb0U, 0xbcb0a02fbe5ee0aeU, 0x3d2d29603d84b058U,
  0xbd86eaa73d5439d5U, 0x3df974e1bdd49c63U, 0x3c52a9cd3d2d43c1U, 0xbd18944cbb39aa6aU,
  0xbdea688cbd108c8eU, 0x3d831717bde04915U, 0x3e3c8e663db837f2U, 0xbea137433defda28U,
  0x3dfb54bcbe04cdb1U, 0xbdadc87b3ddc9c67U, 0x3d43dc6c3d763397U, 0x3d10bc3bbda1f5c7U,
  0xbd2e4db33cf23c80U, 0x3e0b65f4bd0b2d83U, 0xbcf4826ebe82c97eU, 0x3c01ab5b3daa6f4cU,
  0xbdebd0f3be5bd55eU, 0x3ce92a953caf7accU, 0xbd9554e7bd8fdb89U, 0xbdbd9d163dac420cU,
  0x3d4e68c6be2f2893U, 0xbde56ca0be42ddd8U, 0x3c92877bbd703f3dU, 0xbe6bcbdf3e451601U,
  0x3d5c340ebbfe02d6U, 0x3d0339683d3c3e22U, 0x3e1b4d09be753293U, 0x3c4d531e3de0642dU,
  0x3da5670fbde42581U, 0x3c291b463d96ae4aU, 0xbbdcbaf2bea2ce7dU, 0xbd7c21753ddb9d45U,
  0xbe28b92abe11615bU, 0x3e03ead8be0a9fe8U, 0xbdb2a3463e51d805U, 0xbd4088bc3d353692U,
  0xbd659b4dbd3e9532U, 0xbedf5652bd86bcbeU, 0xbe55b460beb2cdc2U, 0x3c8dba71bbbaf90bU,
  0x3c813dae3dc2e09cU, 0xbd7e27d2bd3701b3U, 0x3d3c2b06beb1acbfU, 0x3dcff0ecbcdd7dddU,
  0x3e12a475bea5b9ccU, 0x3de9c1d0bdbbf036U, 0x3d3df2dbbeb40523U, 0xbd6822993e32adaaU,
  0xbd4ce55f3f096d6dU, 0xbe7c8b793d0c7ac2U, 0x3ccd6c9ebe7892f7U, 0xbde9312fbe2fffb7U,
  0xbd5dae23bc64ff47U, 0xbe7463bd3e4ba8b7U, 0x3e4c7e52bd8feff0U, 0xbe4857ef3c3f34cfU,
  0xbd0e59543d0a6062U, 0xbc9549b5be3334cbU, 0x3cb4aaec3cc9b71cU, 0x3cb100fdbd5e4da1U,
  0xbe0b2d223e94a0feU, 0x3d452257be570bb4U, 0xbd30ed783e4f103eU, 0x3d0f6eeebe1bf96aU,
  0xbe41c556befd80c4U, 0xbe608879be98cbc7U, 0x3e2f5262bdbaf53fU, 0xbe1bbd16bedafb20U,
  0xbe18bcb6be388415U, 0xbe544aa6beb4aae6U, 0x3ce79c85be098092U, 0xbe34cf043e6cdd93U,
  0xbd0adc623cebe54fU, 0xbe5b3945bd3ed25bU, 0x3e08b2f3bc9e0b87U, 0x3e195d683d475506U,
  0xbe1d1f3cbe163b18U, 0xbe9e9a05be152d34U, 0xbea342923dce1d26U, 0xbe1767693e32d27aU,
  0xbd3e9fe1be855558U, 0x3daddf9dbd13d056U, 0x3da29bbd3dfd61a1U, 0x3c755af3bd5aada9U,
  0xbc8c0bb73dcfa932U, 0xbd0cc5733cb2a378U, 0xbe473cdc3e5db8dcU, 0x3d8699bd3eb40a35U,
  0x3d9f4fdcbdbc6dbdU, 0xbe14917d3d5c3ff4U, 0x3dc005453d7060ddU, 0xbcef0960bdec4bc6U,
  0x3da7872bbe8f8dfeU, 0xbdea2ceebe5cd911U, 0xbd66b40ebe135870U, 0xbe08170d3dd4cadfU,
  0xbc12c3c7bd4282f1U, 0xbe546a4a3d04b6f7U, 0x3cbdf47fbe455ac0U, 0xbe163dbb3d87fddbU,
  0xbd9d59f6bdf4c886U, 0x3b891d18bdb0c20fU, 0x3c680cd1bda3006bU, 0xbea6d0083d29c9a7U,
  0xbca724a8bdb25ce0U, 0x3b1172c0be00dcccU, 0x3d065e1b3debc92eU, 0x3d99d8e43c0e671dU,
  0xbe3b7573be663b41U, 0xbdaea85cbe006f12U, 0xbe021b923d813ac4U, 0xbd4986d6bb55939eU,
  0xbe67df40be9d847aU, 0xbe168837be6102c9U, 0xbd6991cfbe1292cfU, 0xbe892da4bdb38516U,
  0xbe5c0a5abd4b4d01U, 0xbe87b95cbe0f42f3U, 0xbed90bb3be4c6741U, 0xbe7096c23e5c3579U,
  0x3c5595f23db2d9a8U, 0xbaa230d83d807099U, 0x3d08a677bdaf4b51U, 0x3e441f48bd1a9987U,
  0xbd1517c0beefa2a8U, 0xbea616f93c6afdc4U, 0xbed5df45bcb56ab1U, 0xbe638a203e12d74cU,
  0xbe756f9f3dbee692U, 0x3ca977c4be955ffcU, 0x3d8408603debf801U, 0xbe4a9f263dfe4d5aU,
  0x3d1a148fbb928ee6U, 0xbe86ddf03d8531f4U, 0x3b8f0e2fbe5f5921U, 0x3d47af49bd633b2cU,
  0x3ce5d8f2bd2ce5a6U, 0x3dc15befbe2fb312U, 0xbdc936edbd741871U, 0xbd912523be2d8261U,
  0x3e43b4b8be0d8adeU, 0x3e6699a6be680f8dU, 0x3d991460bea4e8bfU, 0xbe9ee83e3d4bbfc8U,
  0xbd5f7ff6beac2a86U, 0xbe1d8551bbad023cU, 0xbdd2b8cebe882ccbU, 0xbde6fae33dddb400U,
  0xbe2248a3be46e5b9U, 0xbd87df83be1a2183U, 0xbe82894bbd4db7b8U, 0xbea0a7213b5b23e7U,
  0x3df5dd8b3b1450baU, 0x3da13c7dbe1c7b9eU, 0x3de19d753d245455U, 0x3e1f9dc63d8535acU,
  0x3d99dd54beb79622U, 0x3d285f7e3de92223U, 0xbe69a9843d32fcf4U, 0x3e8e806e3e17ff3eU,
  0xbdfa19a2be04bdadU, 0x3e08681fbe252a17U, 0xbe866e6d3d855e18U, 0xbe71f2543e184c3dU,
  0x3d630bd9bd1b3f1aU, 0xbead0df4bd22052fU, 0xbf15af4bbe39f184U, 0xbd43816b3dc02726U,
  0x3d31c5043e109da7U, 0x3bdb49653e5efbc9U, 0x3d26edae3d81b7a5U, 0x3d575b63bd62f2c1U,
  0x3e426f40be347b0cU, 0x3dab6a42bd79b94aU, 0xbe1315e13cd8d7e9U, 0xbe0e38c03e5067edU,
  0xbeb18eb33e7c53b9U, 0x3e986399bd26f528U, 0xbe1de3c33d8ad795U, 0xbc664a7a3d4326bcU,
  0x3d2dc9f5be37fe47U, 0xbe8e765f3e81ca58U, 0xbc80651abe0ed28cU, 0xbc8ed7bfbd026f70U,
  0xbe339239bdcd0821U, 0x3eaebfc8be60fc60U, 0xbe335e0ebe10d11fU, 0xbdf533adbe5e7241U,
  0x3e54149e3c3943c6U, 0x3e127c37be19ea50U, 0xbd605867bed9de5eU, 0xbf03461c3c9c4aabU,
  0x3d9c68e4becb5699U, 0x3d38e56d3d89f8e5U, 0xbddd545fbd15ebf4U, 0xbd8987603e242d0bU,
  0x3cb2d4dbbe2ca57fU, 0x3e13f9dabed9a1d5U, 0xbe70986c3daed1bbU, 0xbdf49f2abdffddddU,
  0xbc124d4a3d083731U, 0xbe5b95b7beafd4b9U, 0x3d33afaebccbdf1fU, 0x3d9b0ed8bca4fe04U,
  0x3da22225be3dea9eU, 0x3e2db9833ea58bdcU, 0xbde63501be4af4e9U, 0x3e227855beafd228U,
  0xbcf98e93becf51ccU, 0xbd7c248e3cb1444bU, 0xbe14c72fbce87f48U, 0xbe1150973d27ceacU,
  0x3ea028f33da304ecU, 0x3d8fd4b5be7f562fU, 0xbe75af323c9df353U, 0x3e64aed9be6b6571U,
  0x3dfceb223dc23841U, 0xbe92544fbe3fbb53U, 0x3e109d5abd56a703U, 0x3d867d59bdd11225U,
  0x3de61fafbed3d5e5U, 0xbd952d993e1b16c8U, 0xbede98b03bdca9c9U, 0x3d98d610be0bd7a9U,
  0xbe189e16be82b250U, 0xbe9e2a73be0e17c0U, 0xbdc0ee40bd8b483bU, 0xbc014ad0bdee4f6eU,
  0x3e89e76d3e392239U, 0x3cf167c9bdbf780aU, 0x3b377f603cb90cd0U, 0x3e768607bec5c9caU,
  0xbd8103bb3df36574U, 0xbd3839bdbe8ef770U, 0xbdb8c38cbe3e1a63U, 0xbb33622a3e328233U,
  0xbd3e6023be025eefU, 0xbe608016bd5748eeU, 0xbeab08b2bd0466b6U, 0x3e4fce2cbce9af77U,
  0xbd733d80bdada854U, 0x3e81adea3e569957U, 0x3d01b4903e2c27e0U, 0xbdb30ae63e8944a0U,
  0xbdfecf6abe835b87U, 0x3dc0badcbeb24d82U, 0xbe0872af3e300e07U, 0xbeb211963d57cd93U,
  0x3de4c29abddcc585U, 0xbe4522a0bdaa4c17U, 0x3dc0c0933de728b0U, 0x3d7d0fa6be4234b8U,
  0x3cdf0f8f3d2c9006U, 0x3ea890eb3d1b3d43U, 0x3e3d6ac6bdc334bfU, 0xbe2f5618be686fc4U,
  0xbdde9b01bed59ef4U, 0x3e0a497abd0e7670U, 0xbe18e0b63db62661U, 0x3c9a5d883e7f4ce5U,
  0xbd3134fa3de53d82U, 0x3e1f3a41be8f6302U, 0xbe1e36b93e381309U, 0xbcdf7afdbde16880U,
  0x3d8b75b93e282556U, 0xbe393c1abe867e84U, 0xbc962b16bbd57811U, 0x3c941c30be2e3195U,
  0x3de22d79be56c49dU, 0x3bcec60d3dd93299U, 0x3dfc48e2be2febfeU, 0x3e5ceb67be25fd34U,
  0x3da2b608be85b234U, 0xbe2e5c59bdf76254U, 0xbd6aea193dcf9195U, 0xbdc432ea3d965769U,
  0x3d6395453cde902aU, 0xbd5a085abe5b3068U, 0x3cfce78f3d5908d4U, 0x3e87a9bbbe1c779dU,
  0xbe08fc993e0a3caeU, 0xbe343336be3a3c99U, 0xbb76e196baa0bf0eU, 0x3c144c053dced655U,
  0x3cca4244be622a0eU, 0xbd6a86443e98476bU, 0x3d1ef9c33cab6ff7U, 0xbe2583eebe9a8131U,
  0xbd75fc083e17894aU, 0x3e1c45f23de0a8c1U, 0x3d6f72463e07bdb9U, 0x3ce969d83e85691dU,
  0xbd682854be5382d4U, 0x3c8b9157bcdbe3d4U, 0x3d39fc6f3d8982f4U, 0xbd906defbe1eda1aU,
  0x3d0b27c9be3127d7U, 0x3ddab59fbe92ffe0U, 0xbd67a747bdab3c8bU, 0xbe80e7c7be20e709U,
  0x3cf46d2abca289c3U, 0x3ebe587ebe97755aU, 0x3cdc1d823d8437d7U, 0xbe48d75abd4e2186U,
  0xbd3d5295bd02f96eU, 0x3deb34f7be6200cdU, 0x3e243bc53e0fd7cbU, 0xbe23c83f3e3e34d2U,
  0xbe34445ebd068751U, 0x3d53b94abe7f733aU, 0x3e584d803e2d7de2U, 0xbeb5725bbc9f3cf8U,
  0xbd48ebbfbccc4adcU, 0xbd59e4e3be586eccU, 0xbe409c1c3bb1ca16U, 0xbe222626be38516cU,
  0xbdcd7f813ddb51e1U, 0x3e81a1873dd1954fU, 0x3e35933ebd9d51f7U, 0xbc952b5abd9d9c33U,
  0x3d85941abe726bf6U, 0x3e46267b3e1295a8U, 0x3d4ab7bd3e54a636U, 0x3d68fcbe3d39eca2U,
  0xbd7f16d2bd560561U, 0xbdd39177be093b63U, 0x3d0f51b83cfaabc6U, 0xbdb96a7bbdef6afbU,
  0xbbe9c7a43db451a3U, 0xbe084d2bbea5ddacU, 0x3e2a37c53e1354beU, 0x3c53d817bdcca1b3U,
  0xbde85341bcd130e1U, 0x3ddcb61ebda08909U, 0x3e6854bd3e926367U, 0xbccb4e9ebe935234U,
  0x3e483bcdbe338e35U, 0x3de7ce853cc8761bU, 0xbd0523e33e27086fU, 0xbc65d5583dd9db00U,
  0xbd6610cfbea1cb78U, 0xbe05ec3dbde24c6bU, 0xbe31d0853e4fb0d8U, 0xbdd5e8173e064f63U,
  0xbc84413fbe71a58bU, 0xbe171ac0bd6dc541U, 0xbd5b7d89bda45f6cU, 0xbdffe299becd4559U,
  0x3dcf6bdebea3fff6U, 0xbd6e8ebabec4e8f4U, 0xbe2101e4be7249c2U, 0xbe534bafbe8114cdU,
  0xbd977a0cbe9067b0U, 0x3e3198bfbe0eef42U, 0x3dd5369bbd47089eU, 0xbdb313443e1fd2d6U,
  0xbd59e6abbe5677c4U, 0x3e687030be865e81U, 0x3c6c18d73dafba3bU, 0xbe6023cd3dcba845U,
  0x3be1bab2bd3342faU, 0x3bba99f9bea2ced1U, 0x3c940dca3e0c3b28U, 0xbe8c965ebe194918U,
  0xbb88e2d3be2607f7U, 0x3e260a49be87f9aaU, 0x3e5fb44abe8f0409U, 0xbe8a66d7be38a2e5U,
  0xbd8faef2be0a1c54U, 0x3de1066ebe26c825U, 0x3dcea4393e225ee5U, 0x3da00703bdb0e758U,
  0xbe6758e7bdfdadc7U, 0xbdb71cc5bdac39e8U, 0xbc35499f3d82e137U, 0xbe60100e3e4fc455U,
  0x3d37c51ebd34a6e0U, 0xbc099cdd3c7c35aaU, 0x3d87a03abd2354e2U, 0x3d82ce22be773d6eU,
  0xbda3e200bebf660aU, 0x3d2b9803be11802eU, 0xbe4fbb78be84a96bU, 0xbe6181f2bc99cd27U,
  0x3df2d9abbd9e2885U, 0x3e15d07abd27ef6aU, 0x3c72a3983e6f1df7U, 0xbd8ca8403d83bc78U,
  0x3b53793bbe05d164U, 0x3dd5e12bbe02d1b5U, 0xbe6571153e3e895aU, 0x3e1900403e1a130aU,
  0xbe73ae7bbe84e1fcU, 0x3e0471cabe1d0b75U, 0xbd0ffaa2be59332aU, 0xbe0a1d73bda5e105U,
  0x3e0caf59be7d5448U, 0x3d979c0cbec0a936U, 0xbd6386b8bf2c3e47U, 0xbeab9b343c21e9b1U,
  0xbdf4b03dbcfb66d7U, 0x3e0b4daebe494ccdU, 0x3d013ba2bcd8e235U, 0xbe69db203e865b38U,
  0xbdec85eabeb59d00U, 0x3debb4e13ca93bd3U, 0x3cd6536b3e0550a2U, 0xbdfbe1ec3d465bc2U,
  0xbd8c9708bea3a7dbU, 0xbc80e616befd050cU, 0xbe8c24aa3d8839f0U, 0xbea2524b3daad061U,
  0x3c4b163d3d1b1163U, 0x3e6c9e9fbe9a94f2U, 0x3e20e025beac51ccU, 0x3d9ca5f2bdf840a4U,
  0x3d7b30893d392ca4U, 0xbc892692bde4f692U, 0x3ba683e1bd15bb16U, 0xbe27b4d83e0e6e71U,
  0xbc501da5bea68f8fU, 0x3de246cdbd9a5ed0U, 0x3cdce1d73de7a3a8U, 0xbdc0d9d93c07d099U,
  0x3e6617b3be70533aU, 0x3d4fb4d3be8afaa4U, 0x3da687b93daba79cU, 0x3dc95390bdbd9fbcU,
  0xbdc4cd76bdcbdc5aU, 0x3e1e0e31bccc76fcU, 0x3daf84b4be574d9fU, 0xbcc20db13db60c4eU,
  0xbe8051173e3dd4d0U, 0x3eaaffd6be077bd0U, 0xbe2749ed3e9a5581U, 0xbdba3e62bd4c62f9U,
  0x3e5784db3e1e2513U, 0x3da7387c3d9b38b9U, 0xbe2deb5cbc449b92U, 0x3e082101be3ffcdeU,
  0xbe8b80103e051e13U, 0x3d014f5dbec5a0f3U, 0xbe445b4abe4c6541U, 0xbe5082783db08436U,
  0x3ded04fe3ca2f288U, 0x3e69ba71bd753affU, 0xbd84da233cc3fa10U, 0xbe362de5bc364e03U,
  0xbe01693f3d05b487U, 0x3e39e981bdf10f63U, 0x3e30d1793d54abfbU, 0xbe2ffe1b3c852917U,
  0x3d914a2f3cb1db36U, 0x3ebaea9ebdc95cf6U, 0x3db666123d8eb8d6U, 0x3e429a32bdefc5f7U,
  0xbeaa80f0bdd796d4U, 0xbd6cb964bef4a096U, 0xbdf28fecbdbb9d7aU, 0xbdfcd3663e161755U,
  0x3da5b8f03e41f5dcU, 0x3d6a0f5abd7c7d7cU, 0x3e483cbdbdff9b1aU, 0xbbb6d118be356a90U,
  0xbe95fa31bc66f660U, 0x3dfc1a0f3d48c1e4U, 0xbe096ed03e0d01ddU, 0xbe375558bcf90bc0U,
  0x3d420e9bbd205f36U, 0x3dfdb566b9fea298U, 0xbd8a2ee7bd425061U, 0x3dee4773bd149280U,
  0x3dac710c3df56550U, 0x3caca134be8b246dU, 0x3a0dfce63c776085U, 0x3e051fba3d599b06U,
  0xbe1f453cbd552a52U, 0x3dee24e3bd381a0cU, 0x3da5f4d63d8c09a1U, 0xbdc14adfbca10843U,
  0xbe1a2369be1de8d1U, 0xbedf1810be8cbdf8U, 0xbeb2ebb9bf00d6bdU, 0xbecb7cb9bda553daU,
  0x3eb63f173e636ce1U, 0xbec6c0e2be5e0123U, 0xbdd0321dbeb73fffU, 0x3ec447a6bf0cb021U,
  0xbb12e63d3d8ec4efU, 0xbe0d48fbbe89a847U, 0xbe07ab16bdd1a6c2U, 0xbdc031803e7c5014U,
  0x3cc846e7beef9387U, 0xbe1dd19ebf07ee3aU, 0xbe943975bd53481eU, 0x3ec7518e3c4bc292U,
  0xbe39d1963ddcc76fU, 0xbe9f3721be7f80ceU, 0xbeedfb54bec3f8e9U, 0xbe8b6c18be13ee7dU,
  0x3e98b3473d49a142U, 0xbe10955d3dd87f70U, 0xbe2eec47be048683U, 0x3e2eb117bf05e1c6U,
  0xbe2fe6623d26e7a1U, 0x3e05b91abed76652U, 0xbdd32121bece7b2cU, 0xbdb9b8f53e3506feU,
  0x3e6ee1573cb855e9U, 0xbcf821cbbe3cdebfU, 0xbc9ea352be6a8896U, 0xbd24b18a3def6c97U,
  0xbdadc8503e02c432U, 0x3e23073d3cb7306eU, 0xbeb25020bd2000e7U, 0xbdfe49e83e8c0482U,
  0x3e165e2dbd6c6650U, 0xbe42789c3e80009cU, 0xbe51abc4beeeb650U, 0x3c71771dbe2c4d59U,
  0xbdc2e18cbdf9d36aU, 0x3e378419bec1b74bU, 0xbad2f313bea1b9c1U, 0xbd9ff5b8bc0bd760U,
  0x3e2319773e6258f4U, 0x3ea269cabace66a1U, 0x3e7a0e93bed99c56U, 0xbebd22643e829817U,
  0xbb3b7413bede4b79U, 0xbdb6d505be123f27U, 0xbec89c10bdd13432U, 0xbe78d82abd530addU,
  0x3e6b8f943e162773U, 0x3e5ef484be90e7ebU, 0xbde7befb3ea3493aU, 0x3e5e8e48beb5929dU,
  0xbcac12703d8e3428U, 0xbe354dadbdd7e85eU, 0x3d38d7b4bdd903b0U, 0x3d1f43ed3e378a60U,
  0xbe5d537cbecd94d4U, 0xbd2e8bb13d82e693U, 0xbf0acf24bd032cd6U, 0x3e51e5e1bdfa2d2fU,
  0xbe46b591be9f5d5bU, 0xbea8b223bd8fc43aU, 0xbe948d75bedb4464U, 0xbe8625d9be6c920eU,
  0x3e5776fcbc8a2306U, 0xbd2f9bcebed99895U, 0xbd904af9be0b6f9fU, 0x3e1076f6bee8e8b0U,
  0x3c6110793dcfbed8U, 0xbddffbc5be89e56fU, 0xbd9af7dcbea6e921U, 0x3e15f4103e7e42edU,
  0xbd329e0ebedd986fU, 0xbea69879be1321c0U, 0xbef2afd23d0ca44fU, 0x3e96ccb33e1bd65eU,
  0xbd86bf433dcc1055U, 0x3c8b01c63d234cd6U, 0xbede5cd7beb1ab0aU, 0xbd9e50ab3c9041f4U,
  0x3e29bf83be4cfed6U, 0x3d60dca43dae6140U, 0xbdb9c1fcbd73f2d7U, 0x3e566809be0a2deeU,
  0xbd4e4cd6be32269eU, 0x3e27adeebeb1cfa0U, 0xbdf6af88bdaf4127U, 0xbd336b3fbd4f3d47U,
  0x3e451cfd3d870509U, 0x3cceebccbdf60587U, 0xbdb8ef71be8d7d20U, 0xbe3bedfb3e117dc8U,
  0xbddbead4bf032badU, 0xbd3f4a233ccb569bU, 0xbd689daebe165418U, 0xbe2a4d24be49de0dU,
  0x3dcc4a6f3d652de7U, 0x3cc87164be96c9a5U, 0xbe428ffa3ea46daaU, 0xbdbcad66bda2f977U,
  0x3da286ed3dde1f6aU, 0xbe78ce3fbe1c50c6U, 0x3d4a23acbd572de3U, 0x3d8657e1bc9312deU,
  0xbe3a6aecbe0c9d73U, 0x3d7259a93e2cae5cU, 0xbea619eebce11e54U, 0x3d32b0773d4dd7bcU,
  0xbc6a22d0bea028bdU, 0xbeac4125be047e2eU, 0xbe44c07dbe76faa5U, 0xbe335984bea0848bU,
  0x3e8b739c3dab3d11U, 0x3eb6cb54be35456bU, 0x3d796a013eb3341eU, 0x3e8d4ccfbeebf7f2U,
  0x3c94c9713e5c3b54U, 0xbe2326d1beb3306cU, 0x3d06fbbbbd7269f8U, 0x3dcee622bc94d653U,
  0xbda54a5abea78f5bU, 0xbecb9cb83e99cff9U, 0xbef8615d3d3f39f5U, 0x3eb6a77ebbf10194U,
  0x3e0f1653bd7f8198U, 0xbed67135bd9a9a0cU, 0xbebe0d7bbec284deU, 0x3c98dec5bd71520dU,
  0x3e393d0f3e3e35aeU, 0x3db7f35ebc2691a8U, 0x3e325b01bd895b91U, 0x3e9bd2d3be98aab7U,
  0xbcc3656a3da791afU, 0xbd171c6ebe8017aeU, 0x3dff3237bd7240eeU, 0xbcca933e3dcbdc0bU,
  0xbccb9dafbe7d2251U, 0xbc523b0f3c59c177U, 0xbe4341323c8aadb4U, 0x3ede7f833da6626cU,
  0x3dc2f32bbece0656U, 0xbe8da9ebbdf5aa2eU, 0xbed67ab8be670741U, 0xbd8d48d6bdef8875U,
  0x3e0465db3dc24e81U, 0xbd913e96be967362U, 0xbe4c68af3dba81a1U, 0x3db2ce63be84e309U,
  0x3d9495d83dbe452bU, 0xbeeb01e7be4ce5e5U, 0x3e382b6bbcf51c9eU, 0xbc37ff0bbdc9c9fdU,
  0xbe24dd50beb6a46bU, 0xbdf023d23e2ba972U, 0xbef094ffbc19fb66U, 0x3d388450bd6b6d59U,
  0xbd3e56bdbea19af7U, 0xbdd0ed84be6e70fbU, 0xbe9c48e6bf068e65U, 0xbe3c1456bea69bceU,
  0x3ec04e1b3e51a6c6U, 0xbea5a0c7bec0fc87U, 0x3d592832be872f26U, 0x3e8f902bbeeca474U,
  0x3cd87f103d794968U, 0xbe9901b4bcbee477U, 0xbe091c4cbe561218U, 0x3d7b96fa3db424f0U,
  0x3df7ba99be146384U, 0xbe0de7d9be34f97bU, 0xbee288813e0ee834U, 0x3e958c0e3dda9f9dU,
  0xbe7a0b843d8fd304U, 0xbdebfe15be06d545U, 0xbe83ec3fbe5e34d4U, 0xbda573f93dc5486dU,
  0x3e7f5165bd8e87e8U, 0xbac551803e7a179fU, 0x3bbf0a813e012f90U, 0x3e9998b4bf0fe0edU,
  0xbe498208bdff359dU, 0x3e34b261be80926aU, 0xbd1b42dabe596018U, 0xbe0e5d313d1513f1U,
  0x3e165773bcff5f98U, 0x3e0a40bbbed542a2U, 0xbc9aceb83d4b2266U, 0x3e64b8ca3a9cc27aU,
  0xbbc8297fbec6cc60U, 0xbd744a70bd8c6929U, 0xbcd6099c3e163081U, 0xbdb7a52f3e322932U,
  0x3ea8630fbd08313aU, 0x3dc981e4bea530bdU, 0xbe560d663e474e3bU, 0x3d6db453bdfe492dU,
  0x3dad3fabbd86fa73U, 0xbeb2c270be798ad1U, 0x3e02b6dd3bb00f4aU, 0x3dca4da5bd72498fU,
  0x3d461cc2be937d83U, 0x3c85af9a3e6e5631U, 0xbe4dd907be31a0aeU, 0xbbad015dbe2e5304U,
  0xbded9fdabecc8737U, 0xbef0d815bba6583bU, 0xbe232fddbe40ddeeU, 0xbe157fe1be8c5e10U,
  0x3e8c70d73e236c13U, 0x3d5d3f13be23d425U, 0xbe05262bbd474ce7U, 0x3e80a5d7be8d2466U,
  0x3d7479a4bd1bfdc8U, 0xbe913281bd5cebb5U, 0xbd72bcf1be04be5dU, 0x3dcfda7e3d63a77eU,
  0xbb471e88beeb877eU, 0xbede094a3e579846U, 0xbf0a697b3d3265fdU, 0x3db2d6c3bdbeb27dU,
  0xbbb1b6b7bddff923U, 0xbed2f6da3dc5ba5fU, 0xbe44b2f1be16cf37U, 0xbe1eab31be438b17U,
  0x3e89cffe3dc1c513U, 0x3c21e1be3d8ae666U, 0xbb9a51973e546ba2U, 0x3eca540abf22ec67U,
  0x3d51996e3e024689U, 0xbc7adfc7bef5187bU, 0xbd60a5ab3d220cd1U, 0x3d5671fc3c91a4deU,
  0xbd465818be2e2f4aU, 0xbe343856bc9bb22fU, 0xbda17f13bcc45b88U, 0x3e83ebe7bb1d4cbcU,
  0xbdabcaaabe489775U, 0x3ea7212fbc102d46U, 0xbdc37a833ecd5b05U, 0xbde51db23eeb98c9U,
  0xbca416fdbe63fe29U, 0x3e278c99be71c46fU, 0x3c05923f3e855379U, 0xbe35bce23abe4e1eU,
  0xbde3c782bd19feedU, 0xbec119b9bbe29256U, 0xbd9283473d18e7daU, 0x3c9c1ed6bdfc9294U,
  0x3b9230a1be29e4d8U, 0x3ec9fd72bc08354cU, 0x3e85e9f8bdc9d769U, 0xbdc4170abe181585U,
  0xbd8c57a6becf5f64U, 0x3dff18103c265172U, 0x3bab6d673e187259U, 0xbdc3ad023e021d84U,
  0xbdc2250c3e407facU, 0x3e3ba59dbe9b442bU, 0xbc3ef0193e5ca6e2U, 0x3e1ecb78be0dd15bU,
  0xbd7259853cfee4a1U, 0xbea52319be61d0dbU, 0xbbf71aaabc1c13daU, 0x3d3e6735bd23ac0bU,
  0xbe90f1b7be260522U, 0xbc84a7333e9570b0U, 0x3ce628be3d574334U, 0xbb180a1cbcc92c95U,
  0x3d0bbb96bea70a96U, 0xbdbb77863e06732fU, 0x3ceebf2b3d84db2cU, 0x3baa4233bdd318a5U,
  0x3e9ae5f73e0c32d3U, 0x3e3d46ebbe210b91U, 0x3e3d186b3de37547U, 0x3e3ce240bef4e2e2U,
  0xbdf9034f3de66be3U, 0xbe843632beb9b286U, 0x3dc431b43ce27b66U, 0x3c8721c83e2aa782U,
  0xbe9d30f0be19f1a9U, 0xbe6d6d613edbcc20U, 0xbe6b42c83d97ac44U, 0x3e549eccbec0db6cU,
  0xbddcda73bcd3f4a1U, 0x3dbe6c1b3d007b1fU, 0x3cdf88283d9d75c8U, 0xbe108a373c040f1eU,
  0xbd61e464be7c80a4U, 0x3dfa07b23da2f7b2U, 0xbe8532f33de128deU, 0x3d5f05b13e187080U,
  0x3caa978dbe6bacb0U, 0x3d43229cbca93fe2U, 0x3dad859b3dc9ae2dU, 0x3dc98fafbe71a48dU,
  0x3e2fdc37be2594feU, 0x3d5253453dd44e8eU, 0xbd1688b8bf0a5b99U, 0x3dc3b4553e40f126U,
  0xbcddce813e10ac30U, 0xbd7fe8c23d9c05c3U, 0xbe4d9eddbd2be8fcU, 0xbe16dd9cbd00484aU,
  0xbe301766bbdd25a8U, 0xbcc5f3493e97efe0U, 0xbdb12ad1bc049358U, 0xbc3e57fe3df192e5U,
  0x3e4f4a8dbd909667U, 0x3e6896073e1ec343U, 0x3d9376c3be8adf9eU, 0xbb675a92beacd082U,
  0x3dd8f12e3e86266dU, 0x3ca59b203dd67cf8U, 0x3e0a509bbecce485U, 0x3dab87ee3e2b5520U,
  0xbe94830e3e95314aU, 0x3c5c4438bd071e7dU, 0xbe5d40083d9f05eaU, 0xbe148fce3e1220eeU,
  0x3dde5c513e04ce42U, 0xbe365a3e3e52985bU, 0xbd96e164bcfb8fffU, 0x3d4c1541be5e2baeU,
  0xbe6f65823d095079U, 0x3e13cde8be23f9c7U, 0xbde58951be5caeb4U, 0xbda35820bddbc6fcU,
  0x3dc808773e9238a0U, 0x3da96a473e55f76eU, 0x3dd3c4e53ca55c0cU, 0xbeb2b266bdf413cfU,
  0xbd68f9b73e8cb9ccU, 0xbe33d3b73d5370dcU, 0xbe4cb68a3e0f43adU, 0xbd7c27143db76da4U,
  0xbe237f7fbd10f506U, 0x3e095da53e89e31aU, 0xbe83ffb43e0225fcU, 0xbe00fba33d8693c1U,
  0x3e18ab4bbd2be455U, 0x3e17c7673dad22e4U, 0x3d76a34fbe5aa284U, 0xbda58e47be2e1523U,
  0xbd82f305bdaeab9cU, 0xbce5fb7d3dcd4409U, 0x3d24d354bea750efU, 0xbdef1362bd97fee5U,
  0xbe731afc3e991a19U, 0xbe7d0503be1684beU, 0xbeb1e4f1bd967321U, 0xbe2d77433d484132U,
  0xbe50fe0cbce8ab68U, 0xbd17cf9a3e4e71caU, 0x3e58f194bdfab396U, 0xbdf740af3c94d4e9U,
  0xbdded49e3df10e96U, 0x3d6f689b3e05ca45U, 0x3ce7fb84be92ff3cU, 0x3d046845bddb6acaU,
  0xbe0ff18c3eb69c17U, 0xbe4a41f83e3e4d32U, 0x3e192c72be287585U, 0x3b596099be217928U,
  0xbe2ef1f13e929f2dU, 0xbe9a624a3bc5fd94U, 0xbda949bfbe7e7981U, 0xbd551199bdeaa8b1U,
  0x3ccdc59f3d88552eU, 0xbebfc1de3da9cdcdU, 0xbca05047be5f8cc0U, 0x3e495ad8bf2b172bU,
  0xbe2d72a23e4bc918U, 0xbc450b1cbece46acU, 0x3d509562bd75cfa0U, 0xbe163c6d3d0c0214U,
  0xbd8b68e03e47f9bcU, 0xbe34e0443e8d40ffU, 0x3e209716bc9dbd73U, 0xbe2b2b48be6ff80dU,
  0xbe6562a93e4cbd4cU, 0xbebe8f0fbc632743U, 0xbe837e89bddcfcd4U, 0x3e1db770bc96b143U,
  0xbe2b020e3e38152aU, 0xbe6eba923d8b67a2U, 0xbe46ef13be52b74cU, 0x3e0782c7bdfa2987U,
  0xbd92f7af3dabeb7aU, 0xbcb4f2923d3a1ffaU, 0x3d5c63d5bdb77737U, 0xbe46d637be3a2d52U,
  0xbdeaab1f3c7f90e9U, 0xbde522763d715e95U, 0x3e2e4edf3d8d6b3fU, 0xbea8436bbe03b182U,
  0xbe4234c5bd170f2fU, 0xbeb924a1bd43feabU, 0xbdfad9afbe33a192U, 0xbe192edebd8b62f7U,
  0xbe42c2343dafdec8U, 0xbe4f1b233d3c3a8bU, 0x3e5bd0babe9d8569U, 0xbdb51f46beb1db9dU,
  0xbe6d31ea3c929d0bU, 0xbe116816be490f5aU, 0xbe427df2bc538d5bU, 0xbd674a5d3e1557e1U,
  0xbd678d733e7459afU, 0xbe0422e5bc35a71cU, 0x3d8249d93de68e9aU, 0xbe3b3308beaa199dU,
  0xbe61431bbd22c799U, 0xbe1dfd6b3dbe50c4U, 0x3e5333fdbe56f9abU, 0xbe64ea22be7e0db7U,
  0x3cbb764f3b8c4abeU, 0xbe701472bb281ffcU, 0xba957c82bdacdc6bU, 0xbbce934ebe910d76U,
  0xbd555c653e214725U, 0xbea56acabe94780dU, 0x3dc27d65bdc7c61bU, 0xbd1c29913d893975U,
  0xbe1e08533dc78b86U, 0xbe66082cbd3400c7U, 0xbe125737bcd039fdU, 0xbdc2e441be2db5ffU,
  0x3d966d1c3eb21533U, 0xbe840ebdbd323986U, 0x3e2b6135be0adff7U, 0xbd994a79be0c99d8U,
  0xbd3dca7e3d9371f5U, 0xbbccba563d055d3dU, 0x3cc689e3bdffc51cU, 0xbd157c7fbd6097dbU,
  0x3b7dd9d43dc1e5daU, 0xbd1ac6cdbe1ca6f3U, 0xbd3ee2893da3c86eU, 0x3d55be5a3ddf7889U,
  0xbe1f61b3bc11f8caU, 0x3dacd984bc90f5feU, 0xbe1bf7b9bbb2be0fU, 0x3ddd5c57bde21446U,
  0xbe09e704be0ce666U, 0xb92f27f0bcac1257U, 0x3da4aae13c3a807bU, 0xbe7d83b0bf1a89f1U,
  0x3d91153d3d8b8d7cU, 0xbe5e3f46be2fccd6U, 0xbded458a3d2cc684U, 0xbcd17d013e008344U,
  0x3e043ff63dc6ea0aU, 0xbdee6de8bcf4e16dU, 0xbcd419f5bdeb509eU, 0x3d83e0913c7faccfU,
  0x3e1c0aecbe1deb62U, 0xbeabe031bcc03907U, 0xbee00b903e156c0fU, 0x3db5201d3e0ff23fU,
  0xbd8679503c6fc5a0U, 0x3e7bd9913dc854f0U, 0x3e5df8a63e84b648U, 0x3df2cd7e3da33310U,
  0x3e18e8493e63e34bU, 0x3e91855c3cf10cd2U, 0xbd404bd03e0d3200U, 0xbb7743793e1bdd33U,
  0xbc0b3ffabb10b579U, 0xbdd1a13fbdd86508U, 0xbe0db4cd3e72f825U, 0xbe4673543dfb1729U,
  0x3da51067be01d5e3U, 0xbe526b02be6de367U, 0xbcb14a4ebbe4a92bU, 0xbd74e665bd8ac31dU,
  0x3dac8f153e1e3979U, 0xbde44749bdbe5d0aU, 0xbd34aef0be3cbd76U, 0xbe061a7fbd7f5c48U,
  0xbe9b0320be4e6f51U, 0x3d1a73ff3dadb45aU, 0xbd75adbebdb14e48U, 0xbecb91193e22dcb6U,
  0xba9cfb8c3ba650abU, 0xbe2493c5bd98e246U, 0x3cbc4c7f3ddf28baU, 0xbcfc77373c14f3d9U,
  0xbea52a81be80c651U, 0xbe15b678bc11818dU, 0xbd03263dbc8ff97dU, 0xbd39d64dbda0be51U,
  0xbe6563ccbea061a1U, 0xbe1c2191be7db344U, 0xbdea1bc6bd0b845dU, 0xbe8cd6a2bea4d3b3U,
  0xbe5fced7bd92960dU, 0xbe269f07be73cd46U, 0xbebafa6f3dcd85c0U, 0xbe4814d63e5136e5U,
  0xbbba154e3ca633a4U, 0xbd8c4ad33d4c0066U, 0x3e34397bbbac0fbaU, 0xbd0baec0be601c31U,
  0xbd1e7e1cbd79679bU, 0xbede9ec43d444bf1U, 0xbed0c38d3de35cbcU, 0xbe054f443e1dad12U,
  0xbe1ec58ebe4005d3U, 0x3e748686bdde64d8U, 0x3dd612743dc853abU, 0x3dd490ce3c8b5ad4U,
  0x3d3859d5bd5dac8dU, 0xbdcf017ebe110691U, 0xbd35bb0cbe298478U, 0xbe60a7f8bc8ef1ceU,
  0xbdd9421e3d3b1167U, 0xbd55a050be0d4b3dU, 0xbe861ed6bdd32d5eU, 0xbe75028c3cb4169bU,
  0x3ddc4997be4fb7c0U, 0x3da894ffbec21be9U, 0xbddcfb99bda7aa68U, 0xbeedfef1bbdcfb2cU,
  0xbd9a6afb3e7f0aa8U, 0x3d08bfccbc747135U, 0xbdd2c413be1a0e3fU, 0xbe0c2b1cbe26cad7U,
  0x3e38e4dbbe148959U, 0xbba761a0bde57449U, 0xbe0b54c33dd70bffU, 0x3c8627803cc2dc9eU,
  0x3dc1ab26bd265020U, 0xbe848717bd669e55U, 0x3e2827533cc77e75U, 0x3e5b352b3dd19965U,
  0x3e83f29fbe1252a4U, 0xbe1936a7bcb40b48U, 0xbe8658643e0d156bU, 0xbd10ddd13dd07204U,
  0x3c8ff9853d52da98U, 0x3e0259aebdae73d3U, 0xbdfe54a3bdc28e86U, 0xbd968dfa3d84782fU,
  0x3d97fddabd367f58U, 0xbea6c8173cd90720U, 0xbe79013ebc09636aU, 0x3d5cd5513d3babf2U,
  0xbc92e8043ccdffccU, 0xbe693d6d3d8faef7U, 0xbd18e122bdb0ec17U, 0x3e3902ab3be4779aU,
  0xbd589df53c58bea0U, 0x3ca67a763c95e40dU, 0xbe5c2f823e35f205U, 0xbdd160e93e610b12U,
  0xbe335d4e3e6437a9U, 0x3e1958ccbd7c9405U, 0xbc8e3cabbdc72bc8U, 0x3a5e8746bdb69859U,
  0x3de5a90b3dc27d6bU, 0xbe7631603da076d6U, 0xbda2f869beae61b0U, 0xbcc0ca603e015c8bU,
  0xbd172aee3c4b860bU, 0x3e1a5bd53e060810U, 0xbe13c7e63c625690U, 0xbdfad5a2bc910892U,
  0x3e86f3cabc76adcfU, 0x3e559fe3be68b10bU, 0xbd9a67ef3d905940U, 0xbe7df60b3e3e0bbcU,
  0x3cc76c1abed25dc3U, 0xbe59a136bdd40917U, 0xbe1fd41dbe3d96fdU, 0xbd7c6c80be026937U,
  0xbb0aff9c3ca5c2c5U, 0xbdd122fcbdaaafe6U, 0xbe9537e93da59cc0U, 0xbd336b2dbd7e2517U,
  0xbdbec8293e3ba212U, 0xbebaac45be951d11U, 0x3e059c84bdc7e521U, 0x3e20b7a6be21dfb5U,
  0xbd875801bebb8644U, 0xbdf0f0113e22ff7cU, 0xbf00178a3d2ee8baU, 0x3cc37bc1be92e25aU,
  0xbe5e8d67bec2a8caU, 0xbebcdb88bd91ac8fU, 0xbe9ea69cbe94942cU, 0xbe7b38ddbde3ff6dU,
  0x3e86eb6d3d8ad6e7U, 0x3d857d9fbed1d939U, 0xbd7ef3eebe062f7dU, 0x3e5410f0be3f3448U,
  0x3d1f7ac53dcc68f3U, 0xbea91a9ebd15a4e5U, 0x3dc7f776bc4f0c3aU, 0x3d483cf53e65266dU,
  0x3e85a3f8be2ef04cU, 0xbe1eb0fb3e164957U, 0xbec1bf5fbdce8252U, 0x3d1ebed13de2116bU,
  0xbdf657b4bdd454deU, 0xbe61980dbd0b87a7U, 0xbd81518bbeceb45fU, 0xbdd1e248be04de48U,
  0x3e988993bcfb7b67U, 0xbda478e1bc2b66ddU, 0xbe186451be407fd1U, 0x3e5eb5ecbea5754cU,
  0xbcaf84a6bd609ec1U, 0x3e427b50bea2a72dU, 0xbda7902abe044cb3U, 0x3d84ea5bbdb28681U,
  0x3e4028eebec2d30eU, 0xbe324587beff487eU, 0xbca024e4bda84826U, 0x3ec0b2313e80c857U,
  0x3db1d914beaeae74U, 0xbd9a123d3b7c5addU, 0x3da2633a3dd8858cU, 0xbdd2cce23b952434U,
  0x3df05e8abe5dc6b0U, 0xbcc2f6d8be7c40c9U, 0xbdf08bd23de6df08U, 0xbe2fb6e53d284b34U,
  0xbc3111433d9ebb93U, 0xbe9cd54dbeac2210U, 0x3db9d12f3d823aa2U, 0x3df5fd2cbdb4b224U,
  0xbdae1501be62cc00U, 0xbdac4956bcb93c45U, 0xbe2a4274be0c9c01U, 0xbd00fd24bdbd355dU,
  0xbde49fb8be15236dU, 0xbeaaf8a83d5d4d09U, 0xbe2e2853be789c19U, 0xbe351f8c3c8e9c56U,
  0x3d453eadbcff314aU, 0x3d4ce6a8be8f8d74U, 0xbe85c8febd54d4dfU, 0x3e00347bbcb4fcb3U,
  0xbba8d0da3e1e5f56U, 0xbe930f55be62c6a5U, 0x3e0163303de12517U, 0x3e1c1d6f3cef3a7bU,
  0x3dc4e038bdd9d2d5U, 0xbe41b4263e8ba685U, 0xbe8ba5243d1c162aU, 0xbdc829743db6d945U,
  0xbd7cb049be46df96U, 0xbf08973bbda4a715U, 0xbdd226f2bea5423bU, 0xbd6bc21bbe28d737U,
  0x3e9e71d23d920aa2U, 0xbe0133ac3d5eaa28U, 0x3e0f23263e45bd4fU, 0x3ec09d78beae0556U,
  0x3dfab7723c5015e4U, 0xbe62ee6bbea2ce6cU, 0x3d4ea1e9bdb89c3eU, 0x3e25e3cebd03df95U,
  0x3e107ec4bcea650eU, 0xbec04f623d88a799U, 0xbec6ee973c49449aU, 0x3edce79f3dabe7ddU,
  0xbcda5847be5305beU, 0x3cf2ba563d68aa4bU, 0x3c5e2cae3e976f28U, 0xbe01610f3ec51edaU,
  0xbdc17d19be985dd0U, 0x3e0accdcbe9aab0dU, 0x3d584b4b3de90f31U, 0xbe43d5cfbdcf3f67U,
  0x3c9e0baebdd929bbU, 0xbdbfe9a2be2fd968U, 0xbdb6d24abda73dc2U, 0xbd6acf2abd868104U,
  0x3e67eb9ebd9dceceU, 0x3c134ea6bd297795U, 0x3e848c77bd0925e0U, 0xbdd4d9d9be628629U,
  0x3e11ab9bbecb7d57U, 0xbdac8ffe3e1d8249U, 0xbd8e1355bd0776c8U, 0xbdb7cd523d693045U,
  0xbe66cd4f3c628403U, 0x3ce526cabe545c6cU, 0x3d53446d3d024b2cU, 0xbd9cfa37bd421fafU,
  0x3d63f0973e5f4595U, 0xbe1c8675bec097edU, 0x3e2bd6523e0c48eeU, 0x3d762394bd72e9d6U,
  0xbe874d25be60a7d7U, 0xbb83d96c3e453c02U, 0xba5caab7bd8b4e57U, 0x3dde7d0abe94b11eU,
  0x3cf9fbdbbd377c18U, 0xbe9d2254bde3eebeU, 0xbda29b7cbddf928dU, 0xbe10122abe061582U,
  0x3e8113273df48f6dU, 0x3c975288be17d0f3U, 0xbe47d7293e7400d4U, 0x3dda2919beaecbb0U,
  0xbe0d78083ea727fdU, 0xbe8d0ec7bed36be5U, 0x3cab2973bd780c2fU, 0xbd369fd03e90126bU,
  0xbd81af14be38599dU, 0xbe870d113efac76cU, 0xbdf0ccce3e552f33U, 0xbde52f97be5e379cU,
  0xbd181248bdcb424dU, 0x3dd851adbd384934U, 0x3dcaff523e390e2dU, 0x3de7b29c3e3e7ac8U,
  0xbd46aadabe44c94aU, 0x3e3ce68c3c84ec3fU, 0x3da664123b2fc830U, 0xbdd9177abd6855a8U,
  0xbdb5dc93bda56fc1U, 0x3e0f4114be26d717U, 0xbe2851bf3d967294U, 0xbe28e02bbe3c61ccU,
  0xbd87db69bdc457c9U, 0x3d9ffdfcbe585530U, 0x3c16d901bed2cf59U, 0x3e02901bbe7737f0U,
  0xbdb37d113c1df820U, 0x3d8e0ab63c40177bU, 0x3dc48d9d3df5fe87U, 0xbcb3683f3cc25c73U,
  0xbdad6113bdbe1c16U, 0xbb392d57bdf216f6U, 0xbd9f64bdbcadeae5U, 0xbcefdf1d3e207c20U,
  0xbda4c527be026addU, 0xbd55b69cbc3691e0U, 0x3dde133abd93ec02U, 0xbcc8d93fbae752c0U,
  0x3c342962bc6c9ffaU, 0x3d44fb44bda59f96U, 0xbd678afcbe6ff794U, 0xbdf49a4abd89f495U,
  0xbc82fb49be18db6eU, 0xbe6e69323a24e557U, 0x3db42713bc7396d8U, 0xbd264836be0fcd27U,
  0xbcb36f83bdb45b6cU, 0xbc826454bc093718U, 0x3e275afbbcaea647U, 0xbd83f1e53cc7b4cbU,
  0x3de00cd43d21f2dbU, 0xbe1b83a43e1dac27U, 0x3ceb002b3df008acU, 0x3e2eea64bda2cb68U,
  0x3d5d8786be00976aU, 0xbd6f2955bdb625c2U, 0xbe22024dbe046c41U, 0xbd94ce263e32e803U,
  0xbe715286bd9be3f0U, 0x3e25c57fbe55de78U, 0xbe02c2123e22eeacU, 0xbeb7af443e5db897U,
  0xbdc34bf0bd828c6eU, 0x3eb77997be026e7bU, 0xbe050e723eb5c796U, 0xbda09c0dbd95ea90U,
  0xbe3a8aa8bcc4ccbeU, 0x3db4d7c9bedef57bU, 0xbe0e190ebe71e24eU, 0xbe5adf0ebcd76d5aU,
  0x3de52ff93d756798U, 0x3e74de21be47d275U, 0x3e60521dbea2225bU, 0xbc5ee61abdfb9b78U,
  0xbd53c147bdf72008U, 0xbd4c06bbbe153babU, 0xbe04f0623d1432d4U, 0xbea09a343ddd6e1cU,
  0xbe0dd26bbdb86f8dU, 0x3d3124aabd831c23U, 0x3d8543363da4dcd8U, 0xbe48413fbda429cdU,
  0xbdf1291fbdbb582fU, 0x3dc3182dbe993bf1U, 0x3d79d270be304367U, 0xbdd1a627be0f533bU,
  0xbcd01afabd880e96U, 0x3da6b86e3c8472a5U, 0x3dd851ebbe98f340U, 0xbda03309bd0613eaU,
  0xbd9cb1033d39c6a5U, 0xbe2f32febdf868baU, 0x3e08b1ed3d1137d6U, 0xbe5574d13d273a20U,
  0xbe2982c43ca4fbefU, 0xbd2df5eabd36f9ebU, 0x3da4d1643d934023U, 0xbd23b6b2bcce741bU,
  0x3e15051abd118aa3U, 0xbe65742abe8649f6U, 0x3e0560973cd38f71U, 0xbc0f99f8be786d86U,
  0xbca9d6473b4e5160U, 0xbe0251ba3e31dee5U, 0x3d0e7a0ebe3edde1U, 0x3d862d6abd8d06eaU,
  0xbe211525bc06807dU, 0x3e9f6d58bda0084aU, 0xbc9ee7893dfd0e2eU, 0xbe9e555d3e2ac122U,
  0x3dc1aa03bd5cee6dU, 0x3d9439863d0d259dU, 0xbc5c339cbe25c3edU, 0x3df51739bd498b06U,
  0xbe5f2140bd9b495eU, 0x3dcf8973bf1d492eU, 0xbe62513abe9860d6U, 0xbe305b06bd9acf12U,
  0xbccf6ed0bd943efbU, 0x3e9433acbd97b0aeU, 0x3d719231bee2781aU, 0xbe80d84dbe0c2a86U,
  0xbd5936d43d925bd0U, 0x3e895a7bbcf82bbbU, 0xbd53f0ae3d9566f2U, 0xbdd20a573e236c43U,
  0xbdca2570bdac0710U, 0x3e20bdb5bdb786ecU, 0x3d07ec063c271d28U, 0xbe08b5cfbd7018f2U,
  0xbe09bc5ebc2d038fU, 0x3d633d19be6de68fU, 0xbe111e30bb8481e8U, 0xbe1778b53e18052dU,
  0xbdf98bc13db0ae2eU, 0x3d70464fbe18e168U, 0x3d7329ccbe28eff6U, 0xbdcdee0ebdf18cf6U,
  0xbe9d9211be1f400dU, 0xbca85baebe371760U, 0x3dec78253e049fc6U, 0xbe02ce26bcb93963U,
  0xbdd63f523d4f660aU, 0x3d38d2b0be1af103U, 0x3d01b8e53e1965c1U, 0xbd3519d83d63f4a5U,
  0x3ccaab1d3d913ef8U, 0xbdf51a8fbe0354a8U, 0xbcff22bebe02c81cU, 0x3d49950fbddf3769U,
  0xbe15d68abb7fc4c5U, 0x3d8a8d49bc376f8cU, 0xbd821035bc7b98baU, 0xbe03c491bbc70825U,
  0x3d3b93903e2f1687U, 0xbe787d42bdf13f67U, 0xbd5e7128be382edaU, 0xbdf6e0f0bc106a0dU,
  0xbe941b643d60ffbbU, 0xbe6c70683e3054beU, 0x3e073925bd50c9edU, 0xbe254181bde87d94U,
  0xbe1f0fbfbd5f0fedU, 0x3db258b1be15d802U, 0xbd268f5dbdb10c1bU, 0xbe286534be8e5b5cU,
  0x3da8d0b4bd8d384dU, 0xbe4a733ebe226f6cU, 0xbdad12373cf79119U, 0xbeb14d12bdc53325U,
  0x3bf51f7f3d54d555U, 0x3ba526753b9145f3U, 0x3d02299a3d1f722bU, 0x3c87bd20bc5c3f60U,
  0xbd1fa4cebd40486cU, 0x3d86064f3e1dac47U, 0x3e0eb41d3dbefc8cU, 0xbda5bbf53e49bb89U,
  0xbdd7db533c0b77e8U, 0x3d6773953da0aa07U, 0xbd81068d3daa0fabU, 0xbdd352ccbd2d6fdeU,
  0xbc9546bb3e19d028U, 0x3d51c108bdf7ead1U, 0xbcc9202d3dccb90eU, 0x3d9a4824bd76696eU,
  0x3c4fc06cbc95794eU, 0x3e194d52bc400c97U, 0x3e49e7033e4cb03cU, 0xbc24ea56bda8928cU,
  0x3d81afe53b755dd0U, 0x3e5b19553d264122U, 0x3d8a4cb03d3f6ef9U, 0x3d1eec7e3dbb063cU,
  0x3d1dcd36bdba394aU, 0x3d8f94a8bdef1041U, 0x3e05f2b83df6470aU, 0x3def9e1dbd8beb0fU,
  0xbc22d490bde27706U, 0x3c8ed57abe4e5188U, 0xbdcb08363e03b83dU, 0xbdcb93053dd0c92fU,
  0xbcab03803d966fa2U, 0xbde3fe42bdf85420U, 0x3e1ceecbbe11e6e5U, 0x3d9c0094bcad7a82U,
  0xbebfb7dd3d8a9138U, 0xbe7b57553daf8271U, 0xbdb87e8bbc79c958U, 0xbdad285cbd595d02U,
  0xbbf6df1cbdac87ddU, 0x3de201633a1565d3U, 0x3ccd74e73da47067U, 0xbe47895dbe3a2306U,
  0xbdb3474d3cf85a8aU, 0xbd3d7adbbdb25f63U, 0xbe177bd53d8ccb2bU, 0xbed8f42cbc8c1ec5U,
  0x3cc7910c3d8e10f8U, 0xbe31d7c5bce48a9dU, 0x3e10d6a8be19a3b3U, 0xbdef33a3bdab1cf5U,
  0x3dea14da3c223277U, 0x3d974cd43e36bd45U, 0xbd4c883d3e1f2f87U, 0x3c5b36cf3dbd3d5dU,
  0x3e16055dbdc2bc52U, 0x3e2a7e963cf8720eU, 0x3cfa9813bd1ba05aU, 0xbcef8aa13d9462cdU,
  0x3d3c978a3d8331f1U, 0xbdb654433d7c7bcfU, 0x3d8ace59bd58ec05U, 0xbdbf684e3df89c05U,
  0x3cdca436be1cd150U, 0xbd3b9da4bd733a07U, 0x3d4c2c2c3e0ff3b2U, 0xbb8ec175bdb597bbU,
  0x3d8262033dad0aebU, 0xbd2e3abb3dd24955U, 0x3c3086633e01b025U, 0xbcf8dca0bdf4ac4eU,
  0x3d16405f3d3f4e50U, 0xbdec1951bdd5a5b5U, 0x3db55b003d4cbd71U, 0x3dc2e99c3da0d0a2U,
  0xbe1c7917bda85ddeU, 0xbd5ea1cfbde55069U, 0xbe4532a23e374019U, 0xbe127578be093980U,
  0x3d16f5603d356fc8U, 0xbe887c8ebc0cf918U, 0x3cfbf5b2be2541d0U, 0xbdaaacdebde9a0c5U,
  0xbe80c1afbdaf9373U, 0xbea981da3e7eb8b6U, 0xbd034d93be25cdf9U, 0xbe81a9673db164c1U,
  0xbba88844bd96d162U, 0x3db79770bdd4c07dU, 0xbd09a968bcd371bbU, 0x3d8b56f7be8410f2U,
  0x3d818a4bbe322454U, 0xbd04570cbdfda8f2U, 0x3a8959573e1e57c0U, 0xbeb597d23d70922cU,
  0x3dd882073e095101U, 0xbe47b4dcbd5f6f82U, 0x3ca3591cbdbcf02fU, 0x3b28204abaaf519fU,
  0xbdc5d61ebd632990U, 0xbc2915333cc02ec8U, 0x3d62ef523dccb782U, 0xbdc1683b3d92ebd1U,
  0xbdcefe6cbbc206c9U, 0xbdb1ac673c835fb7U, 0x3dadada6bd23c918U, 0xbdd6acd4be1e4544U,
  0x3e97d5103dbb598eU, 0xbe478c74bb5476a8U, 0xbdd9dfc0bb8a449cU, 0xbe80a0a23d8ad182U,
  0x3dd6706fbce5b8a9U, 0xbe34f5443cb56960U, 0xbd280951bdfed08aU, 0xbb9549fa3e1e2e68U,
  0x3dca197a3bc5e9d1U, 0xbd987958bc8b872aU, 0x3d9254fbbd8e5478U, 0x3db60bd73d830e35U,
  0xbe1398ae3c017265U, 0xbddc6ca4be52050fU, 0x3dcbe76a3de32952U, 0x3cda60bb3d824416U,
  0xbd1e3c32bdfa25bdU, 0x3e373fc9be20b2beU, 0xbd3d9ee73e01ce84U, 0xbd2d6dc6be5313e0U,
  0x3d6173c63cfc5215U, 0x3d83050cbcdc7fe6U, 0x3e053bed3d9ca9eaU, 0x3ca134513d9984dcU,
  0x3d84620f3d1f5fdbU, 0x3d0884f03d8ecf64U, 0x3df2edac3d5f56c8U, 0x3da839513d753de9U,
  0xbed533bcbf02a084U, 0xbe8de9ccbeadf649U, 0xbe25c0e8be6119daU, 0xbd68f785bdddae6eU,
  0x3d2f5c0cbbe47d0bU, 0x3e162bb23dc00b13U, 0x3e83b7163e4d8057U, 0x3ec565023ea0b158U,
  0x84acb26bba96b786U, 0xa559b58d6caba389U, 0x885ab7a869dba769U, 0xb588c7aa9cab858bU,
  0x766997987dda8289U, 0x65587a7b77595579U, 0x7576787a77598589U, 0x7548978c4889797aU,
  0x7565689866689789U, 0x87466855585a6879U, 0x9979877768697a68U, 0x88886789868b9a88U,
  0x887979c9c89a9879U, 0x977777a89a8b977aU, 0x668cb57b8b97959aU, 0x899898ba4c78c69bU,
  0x885ab7ab4db7a96bU, 0xa589a9a98877a8aaU, 0xa669a9686666b997U, 0x5769985956886796U,
  0x767769676766a586U, 0x777a996a588a6867U, 0x65a98a7b76478778U, 0x7666588b5777a557U,
  0x779a9977b9ba7879U, 0x7799b87a84788769U, 0x89689b78a7696a76U, 0x98777899888a6b59U,
  0x87abb56aaa98999aU, 0x887896bb4878b5aaU, 0x8649888b7ab5c86bU, 0x867bcaac5b77a977U,
  0x656dc67948879887U, 0x675de55b57a86398U, 0x753aa56843869395U, 0x6778866986895566U,
  0x677eb88b798775a8U, 0x7877ba8b86699768U, 0x8869799984899566U, 0x67a779a6a67aa585U,
  0x779a8889a8679896U, 0xa7788aa887799868U, 0x989ba55a8ca698a9U, 0x9549a3ac3887a59aU,
  0xa84ac5ca4a86c75aU, 0xa99bb86a7db5b67bU, 0x777a966d7896a799U, 0x5678a966489585a4U,
  0x668aa86a56658386U, 0x6588965985799475U, 0xa77a978979798456U, 0x86c8886ac55b7757U,
  0x87798877968c7667U, 0x8988986896779478U, 0xa886b889a668b578U, 0x98887c998778a859U,
  0x978bc36aaab86999U, 0x987775ac4776a597U, 0xa768979b29a5a859U, 0x7ab8a77988b78789U,
  0x666bc76e78b689a8U, 0x57998c8877987679U, 0x65888a6976797789U, 0x7787856b888a968aU,
  0x7568866844585676U, 0x9779756ca88b8897U, 0x7769886a668b7769U, 0x78789c6996888777U,
  0xb7757b786899c779U, 0x978689ab89998a59U, 0x597ba5588ab85988U, 0x9759a5894896a687U,
  0xaa6a86b75a97c76aU, 0xb87897bc6a77b486U, 0x958fe87b8cc97aa7U, 0x4978aa9b788a85a9U,
  0x8a6a9689989c7477U, 0x6796897899897478U, 0x576ac65758877476U, 0x775cc76b87ba93b6U,
  0x978ac86bb89a5787U, 0x7a9a986ba7777775U, 0xaa7899875888a779U, 0x98a9cc9bb98a8986U,
  0x588ab54a8aa87799U, 0xb848a4ac48879678U, 0xb66975b93ca8b86bU, 0xa56cb7986ed6c969U,
  0x886bc6867ac966b9U, 0x6859a69a698756b4U, 0x78a7899a777775a9U, 0x8899778885578797U,
  0x899aa48a78768678U, 0x857ba7aa7aa687abU, 0x8969887a88958698U, 0x68b66568d657957aU,
  0xa5a768a6886bb577U, 0xa7888994a8989676U, 0x779bc97a8d9a7799U, 0x975887ba49789679U,
  0xa85784996b88c66aU, 0xc64bb7ab4ec8b67aU, 0x887bc68a8ab9a776U, 0x777c966878a96898U,
  0x978aa78a8996a697U, 0x8789765979989677U, 0x688ba54a87b685a4U, 0x8769776aa56575a5U,
  0x77796a5785865766U, 0x689a7959a4567685U, 0x87b87b68b5568766U, 0xa8697b9a6a7a9779U,
  0x878ba8779a989997U, 0xb688a59a6887b68aU, 0xa78885ba5998c57cU, 0xa68cb7ab4caaa888U,
  0x997a868b6c99a687U, 0x7978998959798697U, 0x8879a87a6869a89cU, 0x9768b78c699b97a9U,
  0x688a888b76989875U, 0x97976a6ba5649794U, 0x8786796868978898U, 0x76aa975ad7a868b9U,
  0x779aa779b75985a9U, 0xaa777ba9a9bc8a77U, 0x888ab8aa9899a788U, 0x7849a8ab3996689cU,
  0x978886ba4875987aU, 0xb83aa7aa4987b478U, 0x869aa7796a998588U, 0x9869a88a3b8a85b5U,
  0x9599b7b9677aa498U, 0x776679b87889b559U, 0x9759ca8868798698U, 0x888aa88c7479a479U,
  0x8979998b768cc577U, 0x97ace899aabb87b8U, 0xa88aa989697ca5b8U, 0xca8cd9c97dcca688U,
  0x68aaa668a9aa7896U, 0x7758959c47879699U, 0xb838949a6997a99aU, 0xa86ab47c8ab5b8b7U,
  0x9a89978a7ad99688U, 0x795ac97a58a78987U, 0x769cba7978977888U, 0x67778a66557895a4U,
  0xa9a659a985869897U, 0x7698987b776979a7U, 0x976776986a8ac567U, 0x8797b899b95a9878U,
  0x97887b9aa8567977U, 0xb96388d697a9c867U, 0x5885785696595774U, 0x875774a648a9a576U,
  0xb879b4ba7ab6b898U, 0x964ab78b5ba8b7a9U, 0x7b8bb76a9aaa6787U, 0x696cd98a7aaa647bU,
  0x95999787888a8987U, 0x9887979a8a799886U, 0x7688c9aa97787ab9U, 0x86aac87aa449799aU,
  0x9669a9ab66799878U, 0x86976b898566986aU, 0x87979e7bb647888aU, 0xa9858bb96746ac7aU,
  0x47947966948a7888U, 0x788444a47546a554U, 0x956665a65975ca95U, 0xc779a7aa6ba7b897U,
  0x987aa888bb9a8998U, 0x7b66898a69a98667U, 0x77aab8775a9b68a7U, 0x98a8aa98988ca9aaU,
  0x8a8a985a87569798U, 0x89799a6b97697798U, 0x888b8a5687585898U, 0x97a87a68b7468677U,
  0xa88baa5a89899b77U, 0x98abc979a9887988U, 0x8696697595884777U, 0x783559553264a373U,
  0xa78875878655b864U, 0xb56995763a88b798U, 0xa97896688aac9789U, 0x987a9777798b8569U,
  0xb798ba988b8a76aaU, 0x899aaa9ab98f8a8cU, 0x99cc9989a8ba9989U, 0x889aa976a999b779U,
  0x988b9b9978999a88U, 0x89aaa97ba87e9989U, 0xb88a8ab9abacc988U, 0xb9a977b7adacaa89U,
  0xb48886877776998aU, 0xb75769b55866c544U, 0xca6999d56a86b865U, 0x7a956a977587b989U,
  0x9b97aaa59995ad77U, 0x9ab998a9c7b8a9b9U, 0x98e89987e9897979U, 0xc8c5a794a65a8669U,
  0xa9869ba677877775U, 0x9a8789c68a79a768U, 0x779699a998888787U, 0x87857898496876a7U,
  0x899878978769878cU, 0x85c55958b5687876U, 0x73878647a789499cU, 0x864647a26666b252U,
  0xc9478dc37b97a668U, 0x7989abb97a979977U, 0x88a77788c588b766U, 0x87bab78bbbb99968U,
  0x767ab887899a7967U, 0x86a46aa78759aa86U, 0xa74569966987a796U, 0x96b978568a9a7b7bU,
  0x5794667798986767U, 0x667548547996a977U, 0x8797986699786889U, 0x77a97a7996678787U,
  0x9298953898696a89U, 0x8775384377689433U, 0x8a687bb48a7ac647U, 0x9a6bcac77989a98bU,
  0x898c98bab9a99a7aU, 0x77999788a7778989U, 0x75b76c9787b9a995U, 0x8788abba898b8babU,
  0x868769b8877da879U, 0x96877797ac9c889aU, 0x857478779769676aU, 0x97755868685a7799U,
  0x86756977a85b8866U, 0x77a78a69988b7898U, 0x72977558787a4a8cU, 0x87855a639558a622U,
  0xc9858db4789ac446U, 0x998aaae87ba7cb8cU, 0x888a9b99a7ba998bU, 0x87a8a779cabb97aaU,
  0x79766884b98ab779U, 0x88a86ab7ba7cb986U, 0x88754998977b988aU, 0x675687989a987768U,
  0x886599a669778998U, 0x975679a6767a7998U, 0x87478d88989b79a7U, 0x877779795b7a8a88U,
  0x6287798996786a97U, 0x6775796398766634U, 0x99579da799998868U, 0xa97abbba6ab9ba8bU,
  0x87c9aacab5ba8dabU, 0xb7acaaacc988ba9bU, 0x97565aa7a88c958bU, 0xa8756cc89a897a5aU,
  0x98559777697b7a8aU, 0x7633588467786549U, 0x88756a949b9a7886U, 0xa93458866a6b9a89U,
  0x8837767b778a7779U, 0xa8a8866896786878U, 0x84a7767aa768599cU, 0x77785975a8888344U,
  0x9ba88c889959a699U, 0x9b5ccbb97ec79cacU, 0x579cb55aa8a879baU, 0x899ad88ba8677797U,
  0x98a68d7897a889a7U, 0x98467aab8b95774bU, 0x68757a6958764c9bU, 0x5763798c446589a6U,
  0xa8749ba876759b99U, 0xa9868bb94996ab8aU, 0x89889eae6a97c7adU, 0xa876bc7ba584a8a9U,
  0x7398863995686b7aU, 0x88856a6599688446U, 0x9b898da77766a687U, 0xab89b9ab8aa8b9acU,
  0x8aaa96aa99c799bbU, 0x98d89896b987a899U, 0x97957b9569a59b78U, 0x9866a9979879aa99U,
  0x999889987ba75c9bU, 0x7aa797aba598a9acU, 0xa7a56ac85775aba9U, 0xba88baa98b999c8dU,
  0x987aa7cb6bab97acU, 0x9999a99b9a88879bU, 0x54a9987995684b99U, 0xa8756764a8579665U,
  0x8d6a8aa78ab98597U, 0x8b6ca78a8aa7a8aaU, 0x778bc8a9b7989aaaU, 0x77979988858898a9U,
  0x9785687895789889U, 0x997768a48a889855U, 0xbaa77bb688b86b5aU, 0x87989a87b6977988U,
  0x878448978766a9a7U, 0xa7858897899988abU, 0x99b7aa9979998db9U, 0x87977887a6779ba7U,
  0x72a7767999985a7bU, 0x7866696478679665U, 0xa8b88985aaa99887U, 0xb97bc9bd8bd88aacU,
  0x879b8b9a98a8789bU, 0x657aa99c7888979aU, 0x8784aa8b87897b7aU, 0x8b9459a58679a858U,
  0xaaa76995997b8a6cU, 0x76968879a976988dU, 0x76845888777688abU, 0x9764498689aa768cU,
  0x9768997a798a77bcU, 0x97876779997a8897U, 0x84a99777a8886a89U, 0x88853975a66a9554U,
  0x9a699e96a89ac765U, 0xba8ac9ba8ca8ba98U, 0x6acaab9cbaa978ccU, 0x889bab8ea8bb9aaeU,
  0x77979c9da98a8a6bU, 0x78765cbad66b996aU, 0xa6a55da6ab7abd69U, 0x88877ca9b77b996aU,
  0x868b799b698c6a8bU, 0x86975999986c7999U, 0x77788b899b7b7989U, 0x968979897779889aU,
  0x8498a96699686a88U, 0x78663854a64a7444U, 0x7ba68c86b889c877U, 0xab9ab9a88da6c77aU,
  0x98acfaadac997accU, 0x8689b88ca96869baU, 0x98799969897a589aU, 0x58999a89b8798878U,
  0x76a6799868756878U, 0x869789a669779c88U, 0x68878ab96a79a98aU, 0x87978998954999aaU,
  0x68867a786a888887U, 0x98a688b6797a798aU, 0xa497666897996a78U, 0x4798594494787756U,
  0x8ab67a85a78ba678U, 0xbb5798ca8a85d988U, 0x999cc99d7ac78cbeU, 0x67eab76bc7987daaU,
  0x88899777a6777698U, 0x67c98a7ab6756967U, 0x8785799c6896787aU, 0x8796898776758889U,
  0x77a689a89685c798U, 0x69a78b8ab7787a9aU, 0x76a759b866889a77U, 0x959788b98898a7aaU,
  0x5387857a86788d88U, 0x49886534a6786535U, 0x6899965699b7a985U, 0xa97bb8ba69a5baacU,
  0x998a999dd9b69badU, 0x7699989996a976a8U, 0x789abaa7a5887aa7U, 0x68c76a79c687a96aU,
  0x6757799a78889967U, 0x88a7778a86959a98U, 0x86c79b98a745a977U, 0x87868a879997ac99U,
  0x96a66a979a9b9c79U, 0x96987a7887988869U, 0x95a7a756888a5b79U, 0x89768a64a57aa445U,
  0x69789ca87ab7a498U, 0xa7bbc9bd6a8ac8ccU, 0x798abcad9997a9abU, 0x86b88b87c8787998U,
  0x88a877897787a789U, 0x98aa7aa9da998989U, 0x7676988777659988U, 0x7878b78889b6879aU,
  0x65b8999b95749988U, 0x87868889a777a679U, 0xa6766889888a897bU, 0x75a697989989896aU,
  0x7a5a9a987a778566U, 0x89abd85c99a87aaaU, 0x86baa56d847678dbU, 0xa5a7997aa6789594U,
  0x88aa986b89a88775U, 0x766bab9c67778988U, 0xa78c99ac79889788U, 0x999a979ba9baa99bU,
  0xa89cb88ba7aaa797U, 0x87acba8ba9798985U, 0x997cb87ca886979bU, 0x766a798a888a9688U,
  0x7677678786699986U, 0x9a6cb89778aaa789U, 0xa96aaba95783a686U, 0xb9a9988b97a69bb9U,
  0x84a9964b88956ab9U, 0xa798966a867668a7U, 0xb8ca8969899699b6U, 0x7b5baa7889888a87U,
  0x9ba9977c98788877U, 0x786ba58d77888586U, 0x899cc879a968a778U, 0x6abbc87b9786a8a6U,
  0x78acb679a8869a98U, 0x88acb68b86798776U, 0x8989899b8687a978U, 0xb96858aa5878baa7U,
  0xba6caab869b8c588U, 0x88aaa79d7997799cU, 0xa688a45a669499a8U, 0x65877758b4757586U,
  0x8798886696767667U, 0x9b7a9a8898ba9657U, 0x6a898777a89b6888U, 0x6b7b766985687775U,
  0x794ca6696aa69696U, 0x798b9899a8878885U, 0x7aada78c96887a97U, 0x79abb77896678697U,
  0x6a8c878a668588a6U, 0x799aa886798986a8U, 0xbb5cbdba89b88687U, 0xaaa8989c88896aceU,
  0x77a97499a9957c8aU, 0x76996957b5589595U, 0xa7976c95a79a9786U, 0xaa8888a97a88aa79U,
  0x7899c99967996b87U, 0x7968a64865986598U, 0x7a99a67c97859896U, 0x7a6b99767aa7b876U,
  0x8baba659a7895a97U, 0x5ab8a369a6777695U, 0x8a88958a86558586U, 0x9a987996a8a987a8U,
  0xb97baaaa88987587U, 0xa879689c87b9668bU, 0x9687857a88867989U, 0x9567976878768b77U,
  0x9999877898697a68U, 0x9b778789a9a97797U, 0x599a9869a8977ba7U, 0x8898856c86a876a8U,
  0x6a898589b585a996U, 0xb979a7ba6989c8a5U, 0xa8aa998aaac8b987U, 0x9a9baa8a97968696U,
  0x69aa997bc5756594U, 0x9baa99a97895ca84U, 0x9969a887a9b98477U, 0xa8a887ab8798889dU,
  0x957776aa47968a97U, 0x7896768886587496U, 0xa9a78b8a887aa686U, 0x98888879877b9a87U,
  0x789b9587879997b7U, 0x979c883896868876U, 0x598b944ab6778695U, 0xaa88a977c8988497U,
  0x8a89667ca6898679U, 0x889aa45cb8887675U, 0x78ac754798a856a7U, 0x8abb966799a99898U,
  0x7a7a9a8a98a97588U, 0x687ab5bb779588bcU, 0x87b7739879767aa8U, 0x88a76779a7796887U,
  0xa9a879a8c97caaa7U, 0x9a676a9a69aa79a9U, 0x9a69a8ab88998799U, 0x8a98767aa87a9867U,
  0x78bba667d9aab577U, 0xc79888678b99b595U, 0x9aac9679dabc9786U, 0x77a79859a7788675U,
  0x9968888b667699a4U, 0xaa9888a97988a786U, 0xbb5bb8798bb9c588U, 0x786a849c78c8679bU,
  0x85a7937a99887a88U, 0x8676678798699677U, 0xa7886777aa897897U, 0xaa59999b8a797876U,
  0x899ac69c988998a7U, 0x98aa977c978976b8U, 0x8888c5777988a5a6U, 0x988ba77989699898U,
  0x788b777bb9a969a8U, 0x88ba9769b7a79896U, 0x798ba76a7997967aU, 0x8898978888988986U,
  0xaa7a99999a98b687U, 0xa789959d98a788acU, 0xb487757987788979U, 0x76b66955756a7966U,
  0x8875478399798886U, 0x998887a7988b9867U, 0x98bb9887a97b7899U, 0x97aca879aaa8a799U,
  0x8679c76a97859886U, 0xaa9aa66668979665U, 0x8a9aa569a8899697U, 0x78a8966aa8987697U,
  0xb9a887b988b7a897U, 0xa888989878879797U, 0x8c89889a8b978579U, 0xb899769c88a89aadU,
  0x8588837888985b9aU, 0x66966967a86a6687U, 0xa6a68a8597668877U, 0xa87749878768a667U,
  0x979b898a868a8a87U, 0x987ba879888a6795U, 0x799ab65a79a88778U, 0x999888769aa88676U,
  0x9b78a59996879867U, 0x999bb76ba6a69775U, 0x96ba976a79879997U, 0x89ab857a99879987U,
  0x8c7aa7a988889598U, 0xb799a7ac79b889acU, 0x7766638878887888U, 0x67a77845b7764784U,
  0x78754758679a7b96U, 0x989987889788899aU, 0xa789997b8a9a7798U, 0x88989777896878a8U,
  0x998bb87a9b7a8897U, 0x76b8996a986a8798U, 0x77a79667a8996878U, 0x89a9767988a88868U,
  0x7aabd879a9889889U, 0x8789b768a79896a6U, 0x7a7987887887a685U, 0x979aa59d87a677c9U,
  0x9576959a68888887U, 0x6576896667785864U, 0x8796897787768776U, 0x87699897a8978a99U,
  0x7668986b79a97999U, 0x89baa99a89889a8aU, 0x978ca696bcca9c99U, 0x98b9a78a98bba698U,
  0x877989788a888b88U, 0x88aa687a97968999U, 0x8989869788878668U, 0x9789969866888888U,
  0x9a8879877b988456U, 0xb79996ad898997ccU, 0xc689869d76767baaU, 0x9686678884798465U,
  0x98866868866679a4U, 0x76987769a8788a98U, 0x9878978a7b898885U, 0x898bb88899a987a7U,
  0x97ba98a9a998a998U, 0x77b9a6a9b89975a7U, 0xa887889978a89797U, 0x89bcb79a9a978a79U,
  0x877ab59b6997a6b9U, 0x8788aa99997699b8U, 0x9a5a99a9979995a6U, 0x9468a9ab789688bdU,
  0xa578b77a67897997U, 0x9657597767858643U, 0xa6a8786787998986U, 0x877a987b689879aaU,
  0x86998a797a887898U, 0x8678977865787998U, 0x98ab978a8aab888aU, 0x68ba983698895a8bU,
  0x887858667aaa9769U, 0x799aa67989b876aaU, 0x88ab977b7597879aU, 0xa88a996a8aa76a98U,
  0x95956567865aa999U, 0xb9554bb46855b765U, 0xac7a89b589779966U, 0x7a968ba9a688a97aU,
  0x9aa79c9798889c88U, 0x9aa68878b68997a9U, 0x9bf8a876e87c6a78U, 0x8a967b7676697577U,
  0x8c969cb6566a8688U, 0x9cb77ab888a8898aU, 0x8aa57b9777789877U, 0x799689b667699799U,
  0x89b69aa77758a59aU, 0x97c67a78b6698598U, 0x64658868899b6aa9U, 0x894779926776b464U,
  0xb95b9cb69a99a687U, 0x7b7b989a66989898U, 0x7b8897889798a987U, 0x66b8878baa989989U,
  0x7a6989767aa989b7U, 0x8aa56ca66868bb97U, 0x88765ab57789a9a6U, 0x86a77a9799bc7d7cU,
  0x68b76877a6985876U, 0x987557745a987897U, 0x8697878688666787U, 0x59abb89898779876U,
  0x8387874878696b8aU, 0x987659768987a434U, 0x9b6a9a959aaaa754U, 0x9a6cb9aa7ba7b898U,
  0x8aa9a8b8b998baa7U, 0x87a8a879a88779a9U, 0x97a68c9767698995U, 0x85788ea77a8b9b98U,
  0x98a78a98b56c996aU, 0x998789789b8ca86aU, 0x78667a8786798779U, 0x97767958665a9887U,
  0x89765778b8698775U, 0x79997a7988899876U, 0x65766859876b5b99U, 0x88567a538756a532U,
  0xab9868949879c577U, 0xaa7bb8c99ab6c86bU, 0x988c98889ba9a79aU, 0x56989a79c78b68bbU,
  0x888867949b7b896cU, 0xa8977bc5a96b9b68U, 0x88956ba4666c6a7cU, 0x887789a798998979U,
  0x769778a58a969a99U, 0x96577aa478ab7b98U, 0x77778b78a9797c87U, 0x896879786baa7b75U,
  0x73875979857a6a99U, 0x68778b749a769355U, 0x88778a87b97b9567U, 0xaa5ab9bb6a97c88aU,
  0x9889a7ca86a98888U, 0x878aa898a888a79bU, 0x976678b9868aa79aU, 0x99667ce77979b96aU,
  0x997668b9889b8a7aU, 0x7874588589987579U, 0x7a7787b378676868U, 0x99555994788b7a7aU,
  0x79667698887b6867U, 0x9a98a77999aa7779U, 0x74a7676985494b99U, 0x79587b76aa788653U,
  0x99b87d97a99aa89aU, 0xb95aa9ba7ba7cc8bU, 0x798eb469c79899a9U, 0x8798a8aa9a888994U,
  0x98957c8a798a7b97U, 0xab747a8b79779967U, 0x98799b9987897b9cU, 0x6754599c56667ba7U,
  0xa7a67ca879859d9cU, 0xa7a66bb76877b999U, 0xa8679bab9dbbb78dU, 0x96867baaa778aa8bU,
  0x74a87858947a6a68U, 0x978569739977b634U, 0xab69ab798688b698U, 0xaa9cc6bb8899d98aU,
  0x789cb5aaaac897a9U, 0x77b8c988a999b898U, 0x98b669a579798a67U, 0x8977b997b67a97a8U,
  0xa788aa9778978b9bU, 0x58887bca7578798aU, 0x97756ac867478b9aU, 0xa668bad579797b8bU,
  0xa679aabc8c7b8a9eU, 0x87798aa96b89879dU, 0x55b77a8796684b8aU, 0xca765a7397669745U,
  0x8d789b8598988675U, 0x9b9ba89a9bb8a99aU, 0x8a8db979b6aa77a8U, 0x85a999887698b7abU,
  0x957449a6897a7979U, 0x98965b959a899958U, 0x88a77ab58bd86b6cU, 0x79878986a4866779U,
  0x78955b9767569878U, 0x887689b5796c6b8dU, 0x77a85a87b98b8c9cU, 0x77788b777a99698aU,
  0x72a76689a7784a8aU, 0x78578775865a8557U, 0x98b88a87a9999866U, 0xbb8ab8baacb79a9cU,
  0x789aaa9a9ab7779aU, 0x7599d9798687979aU, 0x76748a7997987c78U, 0x5b934a969549a648U,
  0x89b67997c79b9c8aU, 0x777668a8b9877a7cU, 0x769458b7a767988bU, 0x988469a5597b7a7aU,
  0x76776988696b6a7aU, 0x9886789788996979U, 0x74a99778a8886b8aU, 0x7989898597588575U,
  0xa9798d88a978b498U, 0xb88ba9a98cb9baa7U, 0x989aa9acbcaa89ccU, 0x889b9aa8caa9779cU,
  0x67866999a57a889dU, 0x78974ac9b47b989bU, 0xa7b64ea7a988ac68U, 0x8a698ca776898889U,
  0x85678baa67788989U, 0x88565a98775a8989U, 0x69777d98686a6a89U, 0x97588b97786967a7U,
  0x8486897887695a88U, 0x88764873975a7454U, 0x79999b88da88a677U, 0xa97bb6aa9caaba9cU,
  0x98aae99ca9788abcU, 0x8a79a8698a77688aU, 0x77889a7899776589U, 0x6aa89a8ba698797aU,
  0x67a469aa67746878U, 0x5769878649966998U, 0x67786a997867a789U, 0x88955ba898899a99U,
  0x87667b767987968bU, 0x7797997899789a9aU, 0xb599687b86998c79U, 0x68865956945a7556U,
  0x99a89b87c888b678U, 0xbc7a95bb5bb5d89bU, 0x998aca8e7ba8adbcU, 0x88b9976987888b98U,
  0x78ba9778c7887796U, 0x77b9796898877a77U, 0x89a67a7b77879978U, 0x89a5879787768899U,
  0x69c588997685877aU, 0x6896aaa897989a98U, 0x9aa769a956989a77U, 0x769988a9bb898aaaU,
  0x65b77649969a7b7bU, 0x5968652697687555U, 0x88aa88778998a795U, 0xa98aa5aa6bb5bcbbU,
  0x99aaa69cc9b8aa9eU, 0x77a8b889888b7889U, 0x87bb8868c87a7777U, 0x98a679a9d878c878U,
  0x8777598899a79b76U, 0x77967799b787ac88U, 0x85b5b888b9689b88U, 0x87746ba4ba8a798aU,
  0x96855c94898a7b7aU, 0x76889a7799698887U, 0x85b8875487793b78U, 0x68887b76a58a7554U,
  0x88899bba8ba6c8a6U, 0xb8bbccbc9ca9baddU, 0x899b9d9dab999ddcU, 0x89b98d97b78b8a98U,
  0x76ba7a9bc8678aaaU, 0x78857a89c6579978U, 0x968568a679668998U, 0x8667889a9996b77aU,
  0x9587b6bd8874999aU, 0x96756b8776689776U, 0x95777aa7ba8caa8bU, 0xa4a77ab9aa9a986cU,
  0x895548825474a745U, 0x98998aa8a87b8989U, 0x9987969787968769U, 0x98979979b57a79c9U,
  0x974a97693a979678U, 0x996898b93ba8a78aU, 0xa8adb69aa89a7abaU, 0x99797879677887c6U,
  0x9a89988a8a8a6689U, 0x9878a899777c7898U, 0xb889957a696b86a9U, 0xa87786a7975d957aU,
  0xa88553b757aa9686U, 0xa88887c978a8a887U, 0x5964488586756866U, 0xb98a7889a8a99878U,
  0xaa88947789768b97U, 0x688d876bb6a97688U, 0xba5da8aa5d97b7d9U, 0xb998688a7b8b97aaU,
  0xa9a9b87a9cab8969U, 0xaa98a468957b96a9U, 0x98a89758889ab9a8U, 0x7b6a7847765a78a8U,
  0xa8a7798a867a9699U, 0xa78db68c68bc977dU, 0x9697966866878678U, 0x99ba9695a8778687U,
  0x5857488475875864U, 0x5798a9a7a8a76a88U, 0x7a97956878976b97U, 0x77a75747958867aaU,
  0x999979a88a979776U, 0xb9a788bab99aa777U, 0xa9a85899c88bca68U, 0x97976677868a8687U,
  0x977998668688a687U, 0xba764847a5787699U, 0x89c97669d4796697U, 0xa8bcb97ab79976b9U,
  0x967a9769557888a9U, 0x89766579866a7387U, 0x38865a7295892852U, 0x899987a899a8a888U,
  0x59a786a8a976a888U, 0x5787865c957a89a9U, 0x7bb77b88865b78a8U, 0xaa876879897c978aU,
  0x7898697975798998U, 0x98a886667576b7a6U, 0x79c9889b88789867U, 0x9b787b7a75678888U,
  0x889759b8c88a76b8U, 0x77aac55aaa9769a8U, 0x988ca67bb68a8498U, 0x9878978977888598U,
  0x48a75973b7785872U, 0x88898888a9a8797aU, 0x79988578a9787887U, 0x7a886659a5698b98U,
  0x886b7889966a9669U, 0x997a6758986b9ab9U, 0x9aaa855987a78a98U, 0x96b88a7aa6799a88U,
  0x979c997c7a677998U, 0x9888788ba349a889U, 0x9799996a9656a8b8U, 0x78cb974ac596a967U,
  0x76cba78ca678a797U, 0xa6a6647776679977U, 0x3884687296897754U, 0x989798a89aa6a897U,
  0x8898878788897767U, 0x69a88857c7ab68a6U, 0x9a85588986788677U, 0xa99a7878898a98acU,
  0x88ab858698868ab8U, 0x76cba779c78898d7U, 0x88ac9688a9a7ca99U, 0xb8baaa67e987a876U,
  0x777aa758a6a6a598U, 0x87a75659c4677876U, 0x6abaa75bb79885b9U, 0x7477557a7442a486U,
  0x39a76942a79b4676U, 0x79898797b8999a78U, 0x8987746897767977U, 0x88b88778b5877776U,
  0x988649aa96469a86U, 0x99a78a8568aaabaaU, 0x869a77aaa89798bbU, 0x86bba879a987b6abU,
  0x859998788867a777U, 0x88a97877a6679747U, 0x9aa89869b8889987U, 0x8aaa975aa5886789U,
  0x969bc27d76777789U, 0x6476a53974638587U, 0x28843a46a58a2856U, 0x8999a88799988889U,
  0x89a89479a7779888U, 0x86a65979a6685779U, 0x98998895a97b7a6aU, 0x999ac8a98a99a866U,
  0xab9a979ab969a7aaU, 0x97b7778a87a89886U, 0x88778776a9698488U, 0x7aea986c9768a779U,
  0x9ac9978cb78ba879U, 0x9999736a87977487U, 0x77cba37a867577a8U, 0x7767656966449475U,
  0x38863963a68a3644U, 0x987a66b799a77799U, 0x76887586a7798b88U, 0x86966698a6596787U,
  0x88996b6798787958U, 0xa8ab78999889a779U, 0xa9ab96889b77ab8aU, 0x96ca8558a796797aU,
  0x669a627788b69676U, 0x98a9a7769887a776U, 0x86c99967c5978787U, 0x978664876694a785U,
  0x85b8a46887b47786U, 0x5586743785448557U, 0x49a56934a57a2663U, 0x889987a798a899a8U,
  0x67878497b9aa6b89U, 0x88c88666c9b98788U, 0x9a96787485788787U, 0x8a9a89679777887aU,
  0x98c86989c6878a77U, 0xa9dbc478bb86aca9U, 0x66aaa869a76977b8U, 0x8664676857479595U,
  0x88aa7657866766a7U, 0x85bba4496465aa66U, 0x8579864a8796967aU, 0x5666666a64746566U,
  0x29966756a7792676U, 0x699a889799a7778aU, 0x699aa488a9997a8aU, 0x98a88767a8895766U,
  0x9897656965489876U, 0x98b89663aa7ab997U, 0x78aa9766b9998998U, 0x96cac55a8b979888U,
  0x96abd46a8977c899U, 0x8797b7897788b87bU, 0x77aab559999a869aU, 0x77a7937987987499U,
  0x9555b46a79468798U, 0x6576765754457795U, 0x29b8b837b9aa3785U, 0x988ba5a68898999aU,
  0x877975979a77867aU, 0x79886568a8ac6597U, 0x9b688687a578a688U, 0x77b76897a769b877U,
  0xc57799968a79947bU, 0x75caac67c7969a8aU, 0x678db77a88a6a8a7U, 0x7688c9797577958aU,
  0x9668979968888588U, 0x6967965963567377U, 0x5778875956467569U, 0x6685767854347686U,
  0x27c78b43aaaa2774U, 0x7599b5b867967a7bU, 0x865796977a995748U, 0x88888455c6795676U,
  0x9697645b588a6b77U, 0x67a98566966a5777U, 0xa74686962555b773U, 0x659999689b979da9U,
  0x688b847ab879889bU, 0x6599725a9668857aU, 0x8687656946798796U, 0x9787864756556788U,
  0x76899559744489b9U, 0x675686496224769aU, 0x38987863aaa84666U, 0x74b898b7b769778bU,
  0x956474a85886867cU, 0x858773898a686788U, 0x95c7c55897577777U, 0x66689c489985785aU,
  0x877799693676c957U, 0xb87a938868989498U, 0x768a9577aae975a9U, 0x6579a36798b88579U,
  0x9676755674578688U, 0x778896678786a398U, 0x86c7b44a9566849aU, 0x8588a56874577789U,
  0x85a86997a87b9877U, 0x972569a5795ba837U, 0x888aa8b8acb89859U, 0x7469c9ab5898b69bU,
  0x6848c79978688996U, 0x5656887a75578696U, 0x6996878786465989U, 0x67a8989486766989U,
  0x6995896967486a8bU, 0x8688a85768996c8bU, 0x6975488685787a69U, 0x8b956b8898997a7bU,
  0x8996888a8878769bU, 0x7986995879aa676aU, 0x97756b78876a8988U, 0x7a9689c69a6b9858U,
  0x665aa7aa6ba6b76aU, 0x846adbc939a7b878U, 0x7779a8a948958c66U, 0x6788a68b66668a89U,
  0x6694588755568777U, 0x79a64a9655869878U, 0x9778a897a88a97a9U, 0x78998899aac89969U,
  0x88777888a56a7888U, 0x89abba9896979877U, 0x796ba88b89897896U, 0x8988989a78799899U,
  0xa688789887698898U, 0xa86669b66989b766U, 0x9759968b59b5d689U, 0x764ada9a4b95a558U,
  0x687bb97a6995998aU, 0x5778a77c53955a88U, 0x76a7986769646897U, 0x668886895677a777U,
  0x98977a85b58a7975U, 0x8777798889ba8978U, 0x8a88797996789878U, 0x7c5b985789888687U,
  0x5b8b795898696775U, 0x8c9ab77899a968a5U, 0x9497677885587899U, 0x986687977868b757U,
  0xb769969849b6b679U, 0xb759b79a3bb4c68cU, 0x696bb77e5ab685a8U, 0x3798975b777575baU,
  0x6669a76a4566839bU, 0x6799996787778496U, 0x6785588577588675U, 0x8968a7b67999aa59U,
  0x89b97796a89a6799U, 0x89699898777a7689U, 0x9ba77a87888a6696U, 0x9b885c6799995977U,
  0x94987777956a4897U, 0x886687b57977c565U, 0x963a989539a4a598U, 0x995cc89c5a95b58aU,
  0x995ed66d4cb587cbU, 0x6688886a87a867b8U, 0x9558988768b78498U, 0x577ca76868697688U,
  0x66867a794567a798U, 0x8847878a69989778U, 0x7988998676986779U, 0x89669b76a99a8887U,
  0xa956976a887d9577U, 0x7a87a697b8ab776aU, 0x6385778695694878U, 0x873878b65a68c574U,
  0x974776973a74a87aU, 0xa86bc7a94dc6c78bU, 0x765fe4995cc888aaU, 0x6699a88c978a68b9U,
  0x76776aa875887497U, 0x795b899b69878567U, 0x576bc99b47779686U, 0x6a69979a55677888U,
  0x77d6b99966578686U, 0x8887a8a8886a9978U, 0xb96897b9aa7bb898U, 0xca777ad87b9bb888U,
  0x52965b8695784868U, 0xc74467b96b78a647U, 0xc73995994a96b578U, 0xb94cb5996de5c579U,
  0xa98ee59c6ec869bbU, 0x568b856978875996U, 0x799aa77b598a589aU, 0x7868a67a67767399U,
  0x798a988b78668778U, 0x89999a9a78887798U, 0x7785997858788599U, 0x87b9a978b98a7769U,
  0x8898898a998ca779U, 0x9858b978499a97aaU, 0x6495496894596899U, 0x975879966968b668U,
  0x963984972ba3b659U, 0xb85dc5ab6dc6a67aU, 0xa86ec57d6dd9a688U, 0x688aa76b67976598U,
  0xaa5aa88d5a88868bU, 0x788b977996896599U, 0x698aa75cb6a78796U, 0x769a7b7aa4777687U,
  0x79784ba5754b8864U, 0x68bb989ab6799798U, 0x9997696795677978U, 0x89687aa6897b9786U,
  0x9496896796694897U, 0x7758848668799387U, 0xa46784984877a787U, 0xa76cc59c7bc9c487U,
  0xa86ed89c6dca97b8U, 0x577aa8796a9776a6U, 0x8a88b69b8888887bU, 0x8888679a87a9957cU,
  0x998ba868877b8889U, 0x986b8a58986978a6U, 0x988677788a7a9979U, 0x77b97878c88c8a86U,
  0x8a899796a8789a78U, 0x8b876896789b9b85U, 0xa49679bb98789879U, 0xa65787a748878576U,
  0x965994a72994c789U, 0xb84aa6ba4bb7c689U, 0x9a5de59a5bc99999U, 0x6969a6698a8a64a9U,
  0x87997467a87d678cU, 0x5988556aa68c8378U, 0x7788698888597477U, 0x69796866778b7477U,
  0x79998a86a98b878aU, 0x8aa97a99b789759aU, 0x8969a98c8a8996baU, 0x9b7ac8aa6baca5baU,
  0x94979a97967a8886U, 0x6555678779778476U, 0x9649a5782983b87aU, 0x983bb48c4ca4c56bU,
  0x986ab7ab4bb7aa9bU, 0x697a996b5798799aU, 0x78498669857b7468U, 0x568aba6a86757687U,
  0x5768977962448997U, 0x8798968874669585U, 0x6979a78969958779U, 0x6999867887688788U,
  0x688bc76a6aa69889U, 0x7889a58998a788a8U, 0x84978a9597798876U, 0xa56557b57779b443U,
  0x9659b3872882b66bU, 0xb63bc5ad3a86c689U, 0xa97c877a7999688aU, 0x677ac79e699b779bU,
  0x766c598887aa6a88U, 0x578a985c9ba79889U, 0x9a7a8a6a79a97685U, 0x596aa9899aab9899U,
  0x896ab99a8cb88898U, 0x79a77879b99b888aU, 0x69aa799879ba9776U, 0xaa8b89ababbba9abU,
  0x86877b95958ab888U, 0x59464957756a9756U, 0x8649a6660b92b877U, 0xa84dc68d5988a7b7U,
  0xa76bd88c7cba68adU, 0x874a977c5bac68a7U, 0x76898867799a6977U, 0x789ac96e88799969U,
  0x996b778a8b9b7768U, 0x7978b789c8bb86baU, 0x6aaab88a798ba997U, 0x9abc98aac99b8a8aU,
  0x7ab7999ab9ccaa77U, 0x9b9b96987dcb87bbU, 0x89977968b6a98699U, 0x6a3be89a66a7b197U,
  0xb74dc69a2ce4b6acU, 0xc65ec6ac4bba94cbU, 0xa87ce7ba5b9ab8acU, 0x7766889798896587U,
  0xa87a988c8dbb88a8U, 0xa98a858cbbbd8899U, 0xaa9764a8b67c7479U, 0x9887a6a68aa8a776U,
  0x8b5bb9985ab9a686U, 0x699ab6889bbd7776U, 0x7859a7998ccdb988U, 0x874a97cb9ebc8aa8U,
  0x688a899969667877U, 0x8a979988977aa98aU, 0x687ac86989857797U, 0x8689b96a876554a7U,
  0x7869a86955587555U, 0x8847877a477b8685U, 0x668bb89e9889969bU, 0x687978883667759bU,
  0x865a878c67688899U, 0x86989888875a78a9U, 0x9877479b767b999aU, 0xb77988666aaa7887U,
  0x7869a98a77697686U, 0x8a87689785697a87U, 0x7888786787686878U, 0xa99a868a9aa7b989U,
  0x9988a5797c86db97U, 0x86aab7798776b9a8U, 0xa99a99bc78659b96U, 0x979ca8897797a9b7U,
  0x67a9988b8bb68997U, 0x78ba8687889a8898U, 0x766b8a899a7a8887U, 0x887a9a69768a6877U,
  0x8789967cb67c9999U, 0x868a887989989877U, 0x5998997897796868U, 0x9a87987a967a6977U,
  0x598a898896696777U, 0x598bc89a98b78a8aU, 0x9879b5aa7885c899U, 0x96a8a68b7b95a567U,
  0x979ba6887ab59998U, 0xa87dc77a6898678aU, 0x57ba969887b889a7U, 0x87aba687a579b7c8U,
  0x88799a89867a9889U, 0x99aa9b7a978b9789U, 0x76ab8879d56a897aU, 0xa979687875999866U,
  0x7987686995699868U, 0x98678987968a8866U, 0x3899a96798893786U, 0x688996cc8db8b8bbU,
  0xa679c5bc6a97d99bU, 0xa878d69a7a76b577U, 0xb9789a8b6977a688U, 0xaa8aaa767db5a896U,
  0x779aa98b658777e9U, 0x8898a77976a677e9U, 0x787aa79887689589U, 0xa6aba88ac78b9778U,
  0x869b888a97698877U, 0x668bb8aa976b968aU, 0x877699789588b678U, 0x78778c77679a8669U,
  0x4899a8589a684888U, 0x678aa7ba8bd89789U, 0x8669e59a49a5b998U, 0x9739c65a58a79667U,
  0x894ac75c6878b6b4U, 0x898a75858999a795U, 0x789ba7968a97b9b8U, 0x899aa99a856997b8U,
  0x86898a8b8556a7a9U, 0xa77a89aac98bb7baU, 0x7599b97db67a688aU, 0x779ba97ab5766868U,
  0xa787ba9c5558b887U, 0x8a778886877a8658U, 0x379a8a5698993878U, 0x699ba5bb9997997aU,
  0x975cc5b84cb6aa9bU, 0x968bd66e8a85b6a9U, 0xa779a87a69b8a796U, 0x6a8cbaab879978a8U,
  0x996b9787769988c8U, 0x77ab897b977888c6U, 0x85abba8a886799a8U, 0x9979d88b969a8a9aU,
  0x86b8998ca5a7789bU, 0x77798979a5777957U, 0x698b967a968b88a9U, 0x7656779995797759U,
  0x288a9a3889a92877U, 0xa979a5c9ab98b87bU, 0x968bd49a6c95bb89U, 0xa58cc6a96b96a7a8U,
  0xa778b8785a99a698U, 0x796ba88667a77697U, 0x9cab97ac868877aaU, 0x86bbb7ab9675a6c8U,
  0x979898888787a466U, 0x99a8879ca777887bU, 0x79d98a88a6789676U, 0x88b77965c779886aU,
  0x96baa8abb6aa9897U, 0x9898a8877787977aU, 0x3887882987791878U, 0x779ca58a8cb9ab8aU,
  0x9799b49b9ba8ba7aU, 0xb77ac79a6c85b5a9U, 0xa95dc98b4ab77688U, 0x7a6cc77c77a877b7U,
  0x89a9967ca6769888U, 0x98ba8a8d999798b7U, 0x787c8468978866b7U, 0x99b9985c96877796U,
  0x8baa7d6ac85a6a88U, 0x9a865857a7978978U, 0x75ca8679c6868a76U, 0x985788586988a796U,
  0x39887927867a2776U, 0x998aa7da9cb7a77bU, 0xb65cc5c97b86c58bU, 0x965cb96d5b6596a7U,
  0x9b689a6b6b89a476U, 0x8b8c9a59789874a9U, 0x79b9a959a97a9a89U, 0x7bd8988ba58899baU,
  0x9878676985566988U, 0x77a9675ca435a5a3U, 0x688a8a77c987aa87U, 0x88c8789ab357b793U,
  0x85c97687b7899965U, 0x98787889a66a8b87U, 0x49879727877a1887U, 0x798ac69aa9c7a87aU,
  0xa76bd58b7db6d78cU, 0xa98cd68c8cc7b798U, 0x9a8ba769577a88a6U, 0x8a98a769797786b5U,
  0x9ab7779996766a84U, 0x87a9888798a789a9U, 0x7898a85a795b7bb9U, 0x768bab6aa6699686U,
  0x969aa9898677d896U, 0x877ca67ac77bb786U, 0x95778678a76b95a5U, 0x78499a6978989975U,
  0x2999983799692997U, 0x678ac6ba7ca7a87eU, 0x977ae1ab6d97ca9cU, 0xa87bd37cabb6a9aaU,
  0xa77b957b58b89799U, 0x7b7a997a99999876U, 0x68988969b7988965U, 0x7a7a896789989887U,
  0x999aaa79b769aaa7U, 0x67abc66c879878a7U, 0x688885a9868ba998U, 0x7779959b99897787U,
  0x967687a886578795U, 0x898557877556a886U, 0x3977873aa8892877U, 0xa868c4ba9898d789U,
  0xc67be3cb4cb6d7a8U, 0x978ab49c6c97888aU, 0x9979858977797777U, 0x8869b9ab777898a9U,
  0x788aa987a6998798U, 0x9699a88a7989ba89U, 0xaa7aa59a79a98788U, 0x67bdd36bb57ca697U,
  0x7897748884798677U, 0x6687857894688587U, 0x98a5645664678777U, 0x7696736574456b86U,
  0x5a886836887b4798U, 0x858ab4ca89b6b878U, 0xa648c4a95ea7a96aU, 0x96abc4897ba89bbaU,
  0xaa8ca888aa776889U, 0x8a9b986b89a878aaU, 0x9669886846778aa7U, 0x67b789b8c579a897U,
  0xa6b5768aa789a787U, 0x9699957aa6989487U, 0x84b77677a5457a75U, 0x75a4556582256875U,
  0x8695667783578884U, 0x9695456754347676U, 0x38b97829a5ba3888U, 0x878dc5aa5a96c698U,
  0xd83ac39c4ca5d5acU, 0xb68cc5696db8a8bbU, 0x8b88ca77977b77a9U, 0x796aca5c6ba97889U,
  0x88aba75d87ab5bc9U, 0x759aa76bb79c679bU, 0x5688967876775769U, 0x8556645874685477U,
  0x5377a57763535776U, 0x5576554572456766U, 0x6576534750327674U, 0x7467747754557586U,
  0xb39876aa9788b89aU, 0xc8356ac44567b555U, 0x9b475bc28767b843U, 0x79a54ab59666a979U,
  0xbba79bb58795cb77U, 0x97d8a988da97bab8U, 0x98c8a996bbab769bU, 0x85b79aa6a999767bU,
  0x9a959c9587786797U, 0x8a977aa889969779U, 0x77a5898994578988U, 0x779469864bb88787U,
  0x7888a97aa77d869bU, 0x77c46867a5695888U, 0x83767638787a6b8aU, 0x764678838658a544U,
  0x8b575fb59a9a8759U, 0x68877bb6667a89a7U, 0x8a8689a88799aa58U, 0x85b7978baba89988U,
  0x9878b9b79cb9a879U, 0x7675acc54a67ad77U, 0x98875c9788a8a998U, 0x89b77ab9baca8b89U,
  0x77958878a8ba6879U, 0x87655a857897a787U, 0x9799886688896978U, 0x57856b8888797868U,
  0x7396876785595a9aU, 0xa8777976977ac745U, 0x8989acb99b99b666U, 0x885cdba85ca79769U,
  0x898a88c8a886ba87U, 0x869aa9b9a987aaaaU, 0x95977ab886899787U, 0x87589cd65a7aa899U,
  0x88b44ab8b67a9a79U, 0x879669898c8ba97aU, 0x85657a6698799888U, 0x87565888574ba898U,
  0x87947969976a7876U, 0x66667c6868997b66U, 0x6497765a897b6aaaU, 0x886579748747b744U,
  0xab788cb67798c588U, 0xa98a9aca7bc7d67dU, 0x5aacb96989b8989aU, 0x55b9a767b79b86c9U,
  0x87776986a789977cU, 0x77877ac5996aaa78U, 0x89657b95886a799bU, 0x7688a99788869799U,
  0x9777a8b75b86888aU, 0x97786ca6699d6d99U, 0x66878ca8aaa99c77U, 0x88677a9a7b9a9987U,
  0x939a7678757a7a8aU, 0x77777862ab768454U, 0xa8699c9888988486U, 0x98999ac99787b899U,
  0x87b887ca7a798bbaU, 0x87a9b9aaa98799a9U, 0xb7768995868896abU, 0x66668ba67a76896aU,
  0x598999976a6a889aU, 0x7773678657767756U, 0x7a9788949a768a89U, 0x77766977997c988aU,
  0x87447696898a877bU, 0xb789869a98798568U, 0x94a7778a87787b9bU, 0x77766685aa898654U,
  0x8ba87e86b98ab877U, 0xba6cc8bb7b95aa7aU, 0x679aa66c88996acdU, 0x5788b89ba8777696U,
  0x78768c7a78877989U, 0x7946898a7788897aU, 0x58766a9768878b99U, 0x556349a955549888U,
  0x97a68a9769988a7aU, 0xa7a68ab55866b99aU, 0x97568cba6a8ab89aU, 0x87867aba8696a688U,
  0x84888889878a9a8aU, 0xb7776875b868a455U, 0xaa68ad87a889c476U, 0xa98ba8ba8cb8ca9aU,
  0x978aa68aaad99897U, 0x95c7b888aa67b789U, 0x7687498589aa8857U, 0x77677996a88b7a87U,
  0x668669a88979698cU, 0x67b689b8c5779a99U, 0xa6a44ab85877a98aU, 0x9878abc56a699b9aU,
  0xa87999996b8b8aadU, 0x88887a98687a899aU, 0x84a6777897695baaU, 0x97878773a9579464U,
  0xab6a9a97a998b477U, 0x9a8bb7aa8cb8a897U, 0x688ad78cc8888789U, 0x7576788778779788U,
  0x8765699787698876U, 0x69b75985a9777b57U, 0x89856da68a986a8aU, 0x68977985a5778868U,
  0x96755b8456659677U, 0x97a768a768688a8eU, 0x87b888b9966a899bU, 0x86977c78b87a7a7bU,
  0x74a6867897785a8aU, 0x895769647979a456U, 0x99988b97a889b567U, 0xd95bd99d8c9898abU,
  0x668ea99ba9b867aaU, 0x557ab88d967688b9U, 0x7985b89788a87b89U, 0x7a987aa777778879U,
  0x9aa87999999a986bU, 0x6688899a8677ab8bU, 0x878679977676998aU, 0x87857aa7787b9899U,
  0xa58688968779798aU, 0xa598799787897887U, 0x94a9789996887a9bU, 0x69768c5578698554U,
  0x8978bc99aa88b868U, 0xc76aacb98ba8bc99U, 0x789c978da8a88aabU, 0x7a9aca9aa9aa9abeU,
  0x88878a98999a887dU, 0x67b77ab8b58a99aaU, 0xa5b55bc69877aa8aU, 0x88667b877a988a8aU,
  0x96888a887c7b8a8cU, 0x98754cb6797b6b8bU, 0x6769ac8a798959aaU, 0x89997b97887c79bcU,
  0x96988a7798696b78U, 0x6a676765a8598466U, 0x8a899c789a88c888U, 0x9a7aaabb7c97ba8cU,
  0x89baca9c9b8a799bU, 0x7997998a89665886U, 0x7a85786b5878577aU, 0x6989997aa8aa688aU,
  0x77a6799687767a87U, 0x89777b5679998888U, 0x99767b964887899aU, 0x8b758b88785a8987U,
  0x98668a8748a77a99U, 0x99c6889a898a89bbU, 0xa4997aac89997c79U, 0x9697596577599877U,
  0xa9c88b95c979a978U, 0xab8a98cd6986c8b9U, 0x788bab7c68868bbdU, 0x88baa75a88986aa9U,
  0x7aa98687878979a9U, 0x87b87988a7886887U, 0x87777a895b988898U, 0x88a679878a778699U,
  0x6b967b9a59868589U, 0x79789b775778977aU, 0x89a789c856789988U, 0xa99899accb8aa9baU,
  0x75976889988a6b8aU, 0x5869873695878556U, 0x8a989a7899b69665U, 0x976ab98b4c96cbbbU,
  0x88cba89fc9b6aa8eU, 0x88aab88968998798U, 0x77d88b78a7a96aaaU, 0x76a86a79e7768a8aU,
  0x8869ab9b57a67877U, 0x7999988ba795aca9U, 0x9899a99a9778899aU, 0x88866ac7b89b9a7aU,
  0x98976ca7a9a98a6aU, 0x86a69a98b89a8a7bU, 0x86a7856886896a68U, 0x587a9955867b8374U,
  0x889a8b9979a6c598U, 0x999aadbb6988c8ccU, 0x89aba8cda987b6acU, 0x88a678a6b7679887U,
  0x57a8598797788787U, 0x79888987b9988789U, 0x88a9999998788a8bU, 0x86ba96aab9a8a98aU,
  0x867ac89c9a75a5aaU, 0x87a778a6b67a967aU, 0xa78897b79a9aa68aU, 0x95a79ab8b96ba77aU,
  0x77bba46abc968778U, 0xd45996993878a479U, 0xb7368ca84986b846U, 0x6768b7a85896aa8bU,
  0x887ab6887996b58bU, 0x769aa959a8878896U, 0x748a9b58886666a8U, 0x8665b6854679765aU,
  0x787597a88588678aU, 0x976669865b786678U, 0x9977859b57677887U, 0x7788796978b86b89U,
  0x8859b9698789779bU, 0x8883677a67576886U, 0x66bbd45baa9878aaU, 0x8669b6895867a488U,
  0xba69a6c86c98c85aU, 0xa779c8c8999ab988U, 0x787ba878a478a998U, 0x88877976a6899876U,
  0x867876b9a6789b99U, 0x86565997675b6787U, 0x6667796687899789U, 0x9866688b5887a679U,
  0x78a9896ba6997889U, 0x9975767797798877U, 0x88586997686b676aU, 0x7a77798987987969U,
  0x869cc46ca998798aU, 0x77388b9a49689368U, 0xa9788caa79c9e96aU, 0xa57ccbcb6ba7a988U,
  0x768bb98a5aa877a7U, 0x686ab98a57796587U, 0x757bbb9a599776c8U, 0x66668b8a86686689U,
  0x7757699858697777U, 0x8777a99a7a99b888U, 0x99aa7a8998a9a9a9U, 0x88955898966a68a6U,
  0x88855ab88a7a9687U, 0xa5787b7868989a6aU, 0xa58ac44c9a8868adU, 0x8648978768879466U,
  0xd84898c99a8be779U, 0xa789b9ac6ca8e99dU, 0x8869d7aa8976a8cbU, 0x6878987b89878688U,
  0x7796aa7869877778U, 0xa679bb7a8b9d7799U, 0x6758899ba68aa77cU, 0x877779a8c79b995aU,
  0x88588a76688a8889U, 0x87678b8867699a7bU, 0x9776aa9977788698U, 0xa86789976968a868U,
  0x957ac44b8a8a8a8bU, 0x775895695867a486U, 0xb76aa9996a77b88aU, 0xa878879869c6b6c9U,
  0x87aac89c67a8a8daU, 0x879b9b8ac8779687U, 0x77674a7a7888a678U, 0x966797aa7a8b969aU,
  0x7697888a778a876cU, 0x85765a7867887878U, 0x8667a889799a8668U, 0x87677a69866c6869U,
  0x6664687748899859U, 0x9647888959796747U, 0x868cb24d99a77aabU, 0x973a85872996a589U,
  0x9778ab987a76a999U, 0xa859acca5895b899U, 0x778bba6a88997bb7U, 0x6977998b77aa868aU,
  0x87577a89578a6567U, 0x99586987887b9568U, 0x4767b86767a87a98U, 0x7668798a677699baU,
  0x8977a96b59996a8bU, 0x88979a8887777c89U, 0x97669b9948989899U, 0x88568ca957779988U,
  0x869bd46a7ba9799aU, 0x985885995876b578U, 0xa8688ea85887ba69U, 0xaa3aba985cc8b88aU,
  0x698bc858abba68ccU, 0x9969999997987687U, 0x98998969896876bbU, 0x67975b66657a6798U,
  0x58767a7678775989U, 0x69688a8b66888aabU, 0x79779b8968a6876aU, 0x689ac897ca686c9aU,
  0x77967d7a8a688989U, 0x98969d77798a8b8aU, 0x859ab77ba89a898bU, 0xa94897794a798367U,
  0xb868b9895a87a579U, 0xaa79c8787dc8a6a9U, 0x699aaa8c979499daU, 0x698ab67897879a79U,
  0xa78a89a98888a787U, 0x98976b8878979899U, 0x7798799996c88887U, 0x78967a97a7856668U,
  0x79755a967777a777U, 0x87a9899899a79978U, 0x87c869778778997aU, 0xb9b87aa8989a896aU,
  0x56abb68b9a897889U, 0xa947a6a859879466U, 0xb758889a5a95a579U, 0x9aaaa8997bc99489U,
  0x697da98a79a787b7U, 0x8a5bb89a76a687a6U, 0x7987968a67879878U, 0x89a9a6a8a7aa8788U,
  0x7898b9aa9a9a77c8U, 0x65a66a89956597a7U, 0x8658799867858587U, 0x79aa7777978a8988U,
  0x867889789559b68aU, 0xa56978978aab9787U, 0x769aa66999889a9bU, 0x7769a88949778568U,
  0xa8699ba87977a877U, 0xc9697a997bb8c687U, 0x6b7888784bb888a8U, 0x7888b97ba89968b9U,
  0x77987995868a7677U, 0x88674da9b56ba678U, 0x87677b86999a67a8U, 0x76b98979a88a778aU,
  0x86786a887789a88bU, 0x88967c99aa8b68a8U, 0x869a7c98b98d7687U, 0x96597989767ca8c8U,
  0x869ac67b89aa699aU, 0x8856a97a66788678U, 0x987a987968888a78U, 0x788ab78c9a9ab6bbU,
  0x8899b78b8b9a868bU, 0x7a88997c87777a7aU, 0x8888886979684978U, 0x7896856694785876U,
  0x87b8888973567b98U, 0x75a89ba7a77779b5U, 0x77a6678978788b76U, 0x97977c76b9698899U,
  0x958769679869897aU, 0x86a7a896888a7899U, 0x96a9968baa886a8aU, 0x6958768b6767879aU,
  0x98aa98a9898a997bU, 0xb6c9b7aa9bbaaa98U, 0x8aab999a98989acbU, 0x98aaa99b7888998aU,
  0x969a8799c9989869U, 0x67a5997cb5697868U, 0x85559c9b67767a76U, 0x9888798775566a97U,
  0x887abc78777687b8U, 0x88aa9b88576a9886U, 0x9876787c76789697U, 0x77899999898a9797U,
  0x87a9c66aa9b87a9aU, 0x7a7ac89869879459U, 0xa788978a6978b899U, 0x97a9b97a687799b7U,
  0x97adc97daaa799acU, 0x788ba79a98998788U, 0x869bba8a88788787U, 0x96a7ba3cb6788988U,
  0x76979a5964668a88U, 0x8699a76c85668989U, 0x9598966997598787U, 0x86976676c8998697U,
  0x9599a778988a8777U, 0xb5899778a78888a7U, 0x66b8a569aa88799aU, 0x7757a8a977779377U,
  0xc97897b77b96c969U, 0xa69fc8ac7aaaa9caU, 0x767cfb8c7aaa989bU, 0x968caa897aa97a97U,
  0x998a689988788698U, 0x98975a79aa9ba878U, 0x6a8a77779787897aU, 0x96a9979888689887U,
  0x77a8988a86878788U, 0x776678a865698767U, 0x867579d768699778U, 0x866577a77c9a8968U,
  0x898ba87957747789U, 0x8788986996898999U, 0x676b98797ba67598U, 0x8877785a76686598U,
  0x69689777584a8778U, 0x96477889489b9798U, 0x65a9977d76886899U, 0x79677896458a8989U,
  0xa57c879a77787a98U, 0x9658977858497879U, 0xa6676898667b9768U, 0x897989976a8d8877U,
  0xa86bc88ca89da688U, 0xba769898887b9877U, 0x6889896888966788U, 0x89799789aaa7d889U,
  0x78a795987aa6999aU, 0x779aa8989558798aU, 0x887aaba85767baa5U, 0x998ab8885777b999U,
  0x86a9956baaa7788aU, 0xa88a7777698b9789U, 0x759887797868a789U, 0x867ab86a64787776U,
  0x8988868ba76ba597U, 0x888bb889aa999898U, 0x8a7aa699b7aa8877U, 0x7ab7a79caa799a67U,
  0x689ab87998878788U, 0x97a9969aa9a58989U, 0x967bb5ba6a88c87bU, 0x6689a76b7aa66869U,
  0xa78cd88859a49a87U, 0x79abd97b77776879U, 0x8779b67a678777c8U, 0x7aaa97b973887a98U,
  0x877aa8697a978797U, 0x6abac77b866999b9U, 0x68aa8779b3589685U, 0x796ba8889779b787U,
  0x8a8a8999a7599a89U, 0x97b7859898b9796aU, 0x49799768ba995796U, 0x789996c99ba8a88bU,
  0xb56ba4da6c87c989U, 0x765ae8797c879679U, 0xb85a898b3a86a388U, 0x9b9baa577ab797a6U,
  0x676a887b857786d9U, 0x58baa65b867776b7U, 0x7768a66a6778d4a7U, 0x96acb877c88a8869U,
  0x88777766a6798565U, 0xab8b9a7797699487U, 0xb89aab7a876a958aU, 0x889aac99845a959aU,
  0x48aab756a9992977U, 0xa88a96a87aa7b979U, 0xb67ad79b5bb6b79aU, 0x9768a55a58869678U,
  0x8a4ba98c2899c5c6U, 0x78ab878689b9b8a7U, 0x988a88796ab9b7baU, 0x788a9878877b75b8U,
  0x7469997d5557b5b7U, 0x958ba88bb999b9aaU, 0x786aba7e887978aaU, 0x7a7a898878588766U,
  0x988aa98a8a7aa7b8U, 0x76886767986c9668U, 0x498a984797794787U, 0x878a96ab9ab79799U,
  0xa669b6b75c96b78aU, 0x988ac49b7975b49aU, 0xa89ba7a868a7c6b6U, 0x898aa88a79986799U,
  0x87599588766887bbU, 0x669b88798987a6c6U, 0x858bb88a7768a8b6U, 0xb769a67a8a9b8b9bU,
  0x7789966988877678U, 0x7889a86a84678958U, 0x99a9c69b9679aab8U, 0x85669aa888487877U,
  0x488ba95798984687U, 0x6989c4ba7a86a879U, 0xa88aa49b7d86b98aU, 0x986cb6b98db5b787U,
  0xb77b98875888b7b6U, 0x89889976978968a5U, 0x87aac7acba8788cbU, 0x76898679856586a9U,
  0x78ab998a8668a587U, 0x86789a7b9568a77aU, 0x97777877a7689567U, 0x79d77976b5767778U,
  0x87b99868b3798a87U, 0x87886a6755679896U, 0x499b9849879a3776U, 0x978ba59a79999878U,
  0x976894ba8ba8b89aU, 0xa67bb89b8cb79679U, 0x986cb78a59a88587U, 0x8b6db69977989787U,
  0x999bb76a9676b6c7U, 0x898998aa9685a696U, 0x87aa7669a5898696U, 0x87b9884ec65669b9U,
  0x7787697894596779U, 0x7897676596779a77U, 0x8798786795878b99U, 0x7789899a788ab797U,
  0x48988848999b2676U, 0x998aa6b99b98a779U, 0xb66aa2ca6977d69cU, 0x968cc57a6b989887U,
  0x98889a797a77b575U, 0x7978ab5878998469U, 0x699aa746bba99679U, 0x99a6676aa658b6a9U,
  0x6978854a67796588U, 0x86b8874ca5578693U, 0x78a66a77b3587666U, 0x6aa5754a93478775U,
  0x8797878697888887U, 0x7699799895589987U, 0x38889739b7ab2777U, 0x7979c69b99b6a86aU,
  0xc569a4ab7d85d77bU, 0xa75bb58b8b86b78aU, 0xa759a8884786a695U, 0x9987696966796587U,
  0x87898688979787a6U, 0x6789989a9788c8aaU, 0x89978976786999aaU, 0x66bb995c86788987U,
  0x75b9896aa797c689U, 0x69b89879b767ac89U, 0xa699ab88b86c8789U, 0x88788987998a8996U,
  0x389ab9389aaa6876U, 0x6789a49a8cc6c88cU, 0xa67ad2ad7ea7aa9cU, 0x987cc47d8b96a9abU,
  0x987aa68b69a997aaU, 0x98a8aa59a78a9977U, 0x9788b77a8799a7a6U, 0xa79a997877889898U,
  0x88a77b98a469ab87U, 0x7688aa6975788aa7U, 0x68da797a9679bb97U, 0x97a7b68997698b9aU,
  0xa788979a9788ac97U, 0xa68489a68899aa9bU, 0x78a88775878a6766U, 0x9b79b69a9879b97aU,
  0xb76cc6bd6ca7da9eU, 0xa87ac89b5c98989dU, 0xaa79aa8a687a7999U, 0x7848b9bc866965aaU,
  0x8867989b878aa778U, 0xa8a89cab8979a968U, 0x8a68bb5a998a587aU, 0x788ab87b979aa797U,
  0x9979b77986698599U, 0x69869888a559679aU, 0x69a7856a95768997U, 0x88a7788968779aa8U,
  0x38957854967a4768U, 0x788595b649a7aa58U, 0xa769978a6a85b87aU, 0xa799b69c6997aa9cU,
  0x8a9b9b7a999a6b8aU, 0x5869986d678a5898U, 0x779a9a8746689a98U, 0x89a57a8a97689987U,
  0x97b8657988679886U, 0x79b9798984868797U, 0x77b76788a3559878U, 0x588565886555799aU,
  0x77a7a6677565aa86U, 0x89a85685a6669785U, 0x49a75767b4593868U, 0x6765839645759267U,
  0xc85ac4a65da4c678U, 0xc7ccd5cc6d87d9e8U, 0x88a9a79a788b969aU, 0x577bc9796a96657bU,
  0x76bcaa6c857897b8U, 0x77aab75cb669798bU, 0x5785686b83466875U, 0x6886696577438567U,
  0x688aa96975548895U, 0x5579976a845376bbU, 0x5766466b82549776U, 0x8667747476678784U,
  0x69543b9593497746U, 0x7ba66aa6a7989b67U, 0x75d9763ac86957c9U, 0x9598795a4783b595U,
  0x886aa97a59749687U, 0x888998997979a9a9U, 0x798c997688c69aa6U, 0x7bab7979878789b8U,
  0x786ba7698a898aaaU, 0x86abca79cc9c8a9aU, 0x686a9978b9997997U, 0x755ab759899b6a8aU,
  0x6597766989947877U, 0x684aa75a4bc57787U, 0x7a954cb684698855U, 0x89996a77b579aa88U,
  0xa4b7668a78788d98U, 0x977a9898685597a6U, 0xc87ba9db4975ba97U, 0x77a7677caa876a99U,
  0x8a69998878767886U, 0xbdc98789aa88b8b8U, 0x887b9976ac79788bU, 0x56a99a79b78d5a78U,
  0x79777a9979a88868U, 0x886b8a6b97a8686aU, 0x766ab88a5885b589U, 0x984898985974c797U,
  0x78844da5866b9876U, 0xa7988a97b8a7978aU, 0x947885675a859a97U, 0xb56a85a87ca5a689U,
  0xc85887aa6a84b679U, 0x95aca89c99a7979aU, 0x789979956ba98a68U, 0x689b986777889797U,
  0x6868766787879687U, 0x879b8986a9b97579U, 0xa98a86a5a4796787U, 0x698aa87aa6aa779aU,
  0x6a9a889a86969979U, 0x9a698c9979878695U, 0x89843ab6b4798555U, 0xc9a87bc8977acd8aU,
  0x8597757878959787U, 0xa579967b6656b897U, 0xc9698c8b7a7796a8U, 0x8899698d9a899899U,
  0x9a5977ca687a89b7U, 0x6799876896a777baU, 0x888bb67a47768986U, 0x78497a686a977797U,
  0x8b89779b88876a86U, 0x6aba9668a87978b7U, 0x6aa7699797a56996U, 0x699b997698a77999U,
  0xb9854ba293888756U, 0xa9975987979aaa7aU, 0x9587728588789986U, 0x857ac6695a65b8a8U,
  0xca2ca87a4b979798U, 0x77b8776a79888bb8U, 0x878a966788b76a88U, 0x47a9688888989898U,
  0x775b984d7ea88676U, 0x8a4dc66c989b9599U, 0x997bc6799676a8a6U, 0x6abc976987a5a596U,
  0x79a68989b5a5b665U, 0x7caa7a948bc78877U, 0x98854ab595789747U, 0xa9a998a7999cca78U,
  0x956776795899c778U, 0x758cb73a6cb697c9U, 0xd859c79d5766c6b9U, 0xb86ba78b998b8ad9U,
  0x8a6b7669979988c6U, 0x688e8679969688e9U, 0x988b97ac9678c5b6U, 0x986b978c99c69987U,
  0x69ea6667a6b956a6U, 0x6baa7756b8886676U, 0x8a9595a789889a89U, 0x9c6786a88ac68aa9U,
  0xa9754bb685897858U, 0x9998799899889989U, 0x88b8846888998685U, 0x949db58c5aa6a8caU,
  0xb959859d4c77b679U, 0x979b8679897989d8U, 0x99b9777d8a8868b9U, 0x778b867b97888698U,
  0x678b976998869685U, 0xa8b87878b779a585U, 0x7a9eb878c8ba5885U, 0x77abb86c9aad75b6U,
  0x899788ac9768a8a5U, 0x9a6677b96987b7a8U, 0xd9933a98a24a9868U, 0xa8887888a889a77bU,
  0x948984699989b979U, 0xb67c977a8b68a698U, 0xa759875b4b98b576U, 0x997a7898699686a4U,
  0xacaba87bb89b87b9U, 0x69aa975da47887a7U, 0x9a8a659a8a7aa865U, 0x999ab597b8989776U,
  0x9a7b6978b68a7b89U, 0x7abc887bbaba8786U, 0x6a79a75a798497a8U, 0x9998a8888569a8a5U,
  0xb9955ab4a5699766U, 0x98877798988a99a9U, 0xa55975788b89c779U, 0x857cb6596b96a797U,
  0x997bb86c6a879799U, 0x888da78a797999baU, 0xa79a9679bbbaa8abU, 0x969a87779899a78cU,
  0xa8a966989789a756U, 0xaa7a76858aaa8967U, 0x799b747995596ac6U, 0x69b959aba8a89867U,
  0x7ac88888aa789a67U, 0x9da88997b9998aa9U, 0xaa755a937579a844U, 0xa98778979899a988U,
  0x8677759889a8979aU, 0x976bb6686ca77978U, 0x9a5acaa9689aa8a8U, 0x786d877a9788798bU,
  0x88aa9458879c5baaU, 0x965ca66979ca86c9U, 0x787b955c798a9676U, 0xaa68778489a76876U,
  0x79aa8c9997986aabU, 0x795789a887899979U, 0x997c787a68b88b69U, 0x7b9a97798788968aU,
  0x9a875ba5a6889747U, 0x99a79c879888aa79U, 0xb78886775aa8b679U, 0xb87a937b7986a967U,
  0xa86887ab6978ab99U, 0xba9ba68988a878aaU, 0x989b8a79b89b78baU, 0x878b987b8a8868aaU,
  0x995ab65a86678998U, 0x9a68896889689685U, 0xa99a9769c78a5799U, 0x888a649699d9b678U,
  0xb96c95988cbac679U, 0x887b9667a8799597U, 0x88845ca49877a755U, 0x88a78aa79988978aU,
